{
  "version": "1.0",
  "truncation": {
    "direction": "Right",
    "max_length": 128,
    "strategy": "LongestFirst",
    "stride": 0
  },
  "padding": null,
  "added_tokens": [
    {
      "id": 0,
      "content": "[PAD]",
      "single_word": false,
      "lstrip": false,
      "rstrip": false,
      "normalized": false,
      "special": true
    },
    {
      "id": 1,
      "content": "[UNK]",
      "single_word": false,
      "lstrip": false,
      "rstrip": false,
      "normalized": false,
      "special": true
    },
    {
      "id": 2,
      "content": "[CLS]",
      "single_word": false,
      "lstrip": false,
      "rstrip": false,
      "normalized": false,
      "special": true
    },
    {
      "id": 3,
      "content": "[SEP]",
      "single_word": false,
      "lstrip": false,
      "rstrip": false,
      "normalized": false,
      "special": true
    },
    {
      "id": 4,
      "content": "[MASK]",
      "single_word": false,
      "lstrip": false,
      "rstrip": false,
      "normalized": false,
      "special": true
    }
  ],
  "normalizer": {
    "type": "BertNormalizer",
    "clean_text": true,
    "handle_chinese_chars": true,
    "strip_accents": null,
    "lowercase": false
  },
  "pre_tokenizer": {
    "type": "BertPreTokenizer"
  },
  "post_processor": {
    "type": "TemplateProcessing",
    "single": [
      {
        "SpecialToken": {
          "id": "[CLS]",
          "type_id": 0
        }
      },
      {
        "Sequence": {
          "id": "A",
          "type_id": 0
        }
      },
      {
        "SpecialToken": {
          "id": "[SEP]",
          "type_id": 0
        }
      }
    ],
    "pair": [
      {
        "SpecialToken": {
          "id": "[CLS]",
          "type_id": 0
        }
      },
      {
        "Sequence": {
          "id": "A",
          "type_id": 0
        }
      },
      {
        "SpecialToken": {
          "id": "[SEP]",
          "type_id": 0
        }
      },
      {
        "Sequence": {
          "id": "B",
          "type_id": 1
        }
      },
      {
        "SpecialToken": {
          "id": "[SEP]",
          "type_id": 1
        }
      }
    ],
    "special_tokens": {
      "[CLS]": {
        "id": "[CLS]",
        "ids": [
          2
        ],
        "tokens": [
          "[CLS]"
        ]
      },
      "[SEP]": {
        "id": "[SEP]",
        "ids": [
          3
        ],
        "tokens": [
          "[SEP]"
        ]
      }
    }
  },
  "decoder": {
    "type": "WordPiece",
    "prefix": "##",
    "cleanup": true
  },
  "model": {
    "type": "WordPiece",
    "unk_token": "[UNK]",
    "continuing_subword_prefix": "##",
    "max_input_chars_per_word": 100,
    "vocab": {
      "[PAD]": 0,
      "[UNK]": 1,
      "[CLS]": 2,
      "[SEP]": 3,
      "[MASK]": 4,
      "!": 5,
      "\"": 6,
      "#": 7,
      "$": 8,
      "%": 9,
      "&": 10,
      "'": 11,
      "(": 12,
      ")": 13,
      "*": 14,
      "+": 15,
      ",": 16,
      "-": 17,
      ".": 18,
      "/": 19,
      "0": 20,
      "1": 21,
      "2": 22,
      "3": 23,
      "4": 24,
      "5": 25,
      "6": 26,
      "7": 27,
      "8": 28,
      "9": 29,
      ":": 30,
      ";": 31,
      "<": 32,
      "=": 33,
      ">": 34,
      "?": 35,
      "@": 36,
      "A": 37,
      "B": 38,
      "C": 39,
      "D": 40,
      "E": 41,
      "F": 42,
      "G": 43,
      "H": 44,
      "I": 45,
      "J": 46,
      "K": 47,
      "L": 48,
      "M": 49,
      "N": 50,
      "O": 51,
      "P": 52,
      "Q": 53,
      "R": 54,
      "S": 55,
      "T": 56,
      "U": 57,
      "V": 58,
      "W": 59,
      "X": 60,
      "Y": 61,
      "Z": 62,
      "[": 63,
      "\\": 64,
      "]": 65,
      "^": 66,
      "_": 67,
      "`": 68,
      "a": 69,
      "b": 70,
      "c": 71,
      "d": 72,
      "e": 73,
      "f": 74,
      "g": 75,
      "h": 76,
      "i": 77,
      "j": 78,
      "k": 79,
      "l": 80,
      "m": 81,
      "n": 82,
      "o": 83,
      "p": 84,
      "q": 85,
      "r": 86,
      "s": 87,
      "t": 88,
      "u": 89,
      "v": 90,
      "w": 91,
      "x": 92,
      "y": 93,
      "z": 94,
      "{": 95,
      "|": 96,
      "}": 97,
      "~": 98,
      "£": 99,
      "¤": 100,
      "«": 101,
      "®": 102,
      "°": 103,
      "±": 104,
      "²": 105,
      "³": 106,
      "·": 107,
      "¹": 108,
      "»": 109,
      "½": 110,
      "É": 111,
      "×": 112,
      "ß": 113,
      "à": 114,
      "á": 115,
      "â": 116,
      "ä": 117,
      "æ": 118,
      "ç": 119,
      "è": 120,
      "é": 121,
      "ê": 122,
      "í": 123,
      "ñ": 124,
      "ó": 125,
      "ô": 126,
      "ö": 127,
      "÷": 128,
      "ø": 129,
      "ú": 130,
      "ü": 131,
      "ā": 132,
      "ī": 133,
      "ı": 134,
      "ł": 135,
      "š": 136,
      "ū": 137,
      "ə": 138,
      "˚": 139,
      "́": 140,
      "Δ": 141,
      "ά": 142,
      "ί": 143,
      "α": 144,
      "β": 145,
      "γ": 146,
      "δ": 147,
      "ε": 148,
      "η": 149,
      "θ": 150,
      "ι": 151,
      "κ": 152,
      "λ": 153,
      "μ": 154,
      "ν": 155,
      "ο": 156,
      "π": 157,
      "ρ": 158,
      "ς": 159,
      "σ": 160,
      "τ": 161,
      "υ": 162,
      "φ": 163,
      "ω": 164,
      "ό": 165,
      "А": 166,
      "В": 167,
      "К": 168,
      "М": 169,
      "П": 170,
      "С": 171,
      "а": 172,
      "б": 173,
      "в": 174,
      "г": 175,
      "д": 176,
      "е": 177,
      "з": 178,
      "и": 179,
      "й": 180,
      "к": 181,
      "л": 182,
      "м": 183,
      "н": 184,
      "о": 185,
      "п": 186,
      "р": 187,
      "с": 188,
      "т": 189,
      "у": 190,
      "х": 191,
      "ч": 192,
      "ы": 193,
      "ь": 194,
      "я": 195,
      "ا": 196,
      "ب": 197,
      "د": 198,
      "ر": 199,
      "ل": 200,
      "م": 201,
      "ن": 202,
      "و": 203,
      "ي": 204,
      "་": 205,
      "–": 206,
      "—": 207,
      "―": 208,
      "‘": 209,
      "’": 210,
      "“": 211,
      "”": 212,
      "•": 213,
      "․": 214,
      "…": 215,
      "‧": 216,
      "′": 217,
      "※": 218,
      "‼": 219,
      "⁉": 220,
      "₂": 221,
      "€": 222,
      "⃣": 223,
      "℃": 224,
      "ℓ": 225,
      "™": 226,
      "⅓": 227,
      "⅔": 228,
      "Ⅰ": 229,
      "Ⅱ": 230,
      "Ⅲ": 231,
      "Ⅳ": 232,
      "←": 233,
      "↑": 234,
      "→": 235,
      "↓": 236,
      "↔": 237,
      "↗": 238,
      "↘": 239,
      "↙": 240,
      "−": 241,
      "∙": 242,
      "∼": 243,
      "≪": 244,
      "≫": 245,
      "⋅": 246,
      "①": 247,
      "②": 248,
      "③": 249,
      "④": 250,
      "⑤": 251,
      "⑥": 252,
      "⑦": 253,
      "⑧": 254,
      "⑨": 255,
      "⑩": 256,
      "⑪": 257,
      "⑫": 258,
      "⑴": 259,
      "⑵": 260,
      "⑶": 261,
      "⑷": 262,
      "ⓒ": 263,
      "─": 264,
      "━": 265,
      "│": 266,
      "┼": 267,
      "■": 268,
      "□": 269,
      "▪": 270,
      "▲": 271,
      "△": 272,
      "▶": 273,
      "▷": 274,
      "▼": 275,
      "▽": 276,
      "◀": 277,
      "◇": 278,
      "○": 279,
      "◎": 280,
      "●": 281,
      "☀": 282,
      "☄": 283,
      "★": 284,
      "☆": 285,
      "☎": 286,
      "☑": 287,
      "☘": 288,
      "☝": 289,
      "☞": 290,
      "☠": 291,
      "☢": 292,
      "☣": 293,
      "☹": 294,
      "☺": 295,
      "♀": 296,
      "♂": 297,
      "♠": 298,
      "♡": 299,
      "♣": 300,
      "♥": 301,
      "♦": 302,
      "♨": 303,
      "⚖": 304,
      "⚠": 305,
      "⚡": 306,
      "⛏": 307,
      "⛔": 308,
      "✂": 309,
      "✊": 310,
      "✋": 311,
      "✌": 312,
      "✔": 313,
      "✖": 314,
      "✨": 315,
      "✳": 316,
      "✴": 317,
      "❄": 318,
      "❌": 319,
      "❎": 320,
      "❓": 321,
      "❗": 322,
      "❣": 323,
      "❤": 324,
      "➖": 325,
      "➡": 326,
      "➰": 327,
      "⬛": 328,
      "⭐": 329,
      "⭕": 330,
      "、": 331,
      "。": 332,
      "〃": 333,
      "〈": 334,
      "〉": 335,
      "《": 336,
      "》": 337,
      "「": 338,
      "」": 339,
      "『": 340,
      "』": 341,
      "【": 342,
      "】": 343,
      "〔": 344,
      "〕": 345,
      "〜": 346,
      "〰": 347,
      "あ": 348,
      "い": 349,
      "う": 350,
      "え": 351,
      "お": 352,
      "か": 353,
      "が": 354,
      "き": 355,
      "く": 356,
      "け": 357,
      "こ": 358,
      "さ": 359,
      "し": 360,
      "じ": 361,
      "す": 362,
      "た": 363,
      "だ": 364,
      "ち": 365,
      "っ": 366,
      "つ": 367,
      "て": 368,
      "で": 369,
      "と": 370,
      "な": 371,
      "に": 372,
      "の": 373,
      "は": 374,
      "ま": 375,
      "み": 376,
      "も": 377,
      "や": 378,
      "よ": 379,
      "ら": 380,
      "り": 381,
      "る": 382,
      "れ": 383,
      "わ": 384,
      "を": 385,
      "ん": 386,
      "ア": 387,
      "イ": 388,
      "ウ": 389,
      "オ": 390,
      "カ": 391,
      "キ": 392,
      "ク": 393,
      "コ": 394,
      "シ": 395,
      "ジ": 396,
      "ス": 397,
      "タ": 398,
      "ッ": 399,
      "ト": 400,
      "ド": 401,
      "ナ": 402,
      "ニ": 403,
      "フ": 404,
      "マ": 405,
      "ラ": 406,
      "リ": 407,
      "ル": 408,
      "レ": 409,
      "ロ": 410,
      "ン": 411,
      "・": 412,
      "ー": 413,
      "ㄱ": 414,
      "ㄲ": 415,
      "ㄳ": 416,
      "ㄴ": 417,
      "ㄷ": 418,
      "ㄸ": 419,
      "ㄹ": 420,
      "ㄺ": 421,
      "ㅁ": 422,
      "ㅂ": 423,
      "ㅃ": 424,
      "ㅄ": 425,
      "ㅅ": 426,
      "ㅆ": 427,
      "ㅇ": 428,
      "ㅈ": 429,
      "ㅉ": 430,
      "ㅊ": 431,
      "ㅋ": 432,
      "ㅌ": 433,
      "ㅍ": 434,
      "ㅎ": 435,
      "ㅜ": 436,
      "ㅠ": 437,
      "ㅡ": 438,
      "ㅣ": 439,
      "ㆍ": 440,
      "㈎": 441,
      "㈏": 442,
      "㈐": 443,
      "㈑": 444,
      "㈜": 445,
      "㉠": 446,
      "㉡": 447,
      "㉢": 448,
      "㉮": 449,
      "㉯": 450,
      "㉰": 451,
      "㉱": 452,
      "㉲": 453,
      "㊗": 454,
      "㎍": 455,
      "㎎": 456,
      "㎏": 457,
      "㎒": 458,
      "㎓": 459,
      "㎖": 460,
      "㎛": 461,
      "㎜": 462,
      "㎝": 463,
      "㎞": 464,
      "㎡": 465,
      "㎢": 466,
      "㎥": 467,
      "㎾": 468,
      "㎿": 469,
      "㏄": 470,
      "㏊": 471,
      "一": 472,
      "丁": 473,
      "七": 474,
      "三": 475,
      "上": 476,
      "下": 477,
      "不": 478,
      "世": 479,
      "丘": 480,
      "丙": 481,
      "丞": 482,
      "中": 483,
      "丸": 484,
      "丹": 485,
      "主": 486,
      "久": 487,
      "之": 488,
      "乘": 489,
      "乙": 490,
      "九": 491,
      "也": 492,
      "乳": 493,
      "乾": 494,
      "亂": 495,
      "了": 496,
      "事": 497,
      "二": 498,
      "于": 499,
      "五": 500,
      "井": 501,
      "亞": 502,
      "亡": 503,
      "交": 504,
      "亥": 505,
      "亨": 506,
      "享": 507,
      "京": 508,
      "亭": 509,
      "亮": 510,
      "人": 511,
      "仁": 512,
      "今": 513,
      "介": 514,
      "他": 515,
      "付": 516,
      "仙": 517,
      "代": 518,
      "令": 519,
      "以": 520,
      "仲": 521,
      "件": 522,
      "任": 523,
      "企": 524,
      "伊": 525,
      "伏": 526,
      "伐": 527,
      "休": 528,
      "会": 529,
      "伯": 530,
      "似": 531,
      "伽": 532,
      "位": 533,
      "低": 534,
      "住": 535,
      "佐": 536,
      "佑": 537,
      "何": 538,
      "佛": 539,
      "作": 540,
      "佳": 541,
      "使": 542,
      "來": 543,
      "例": 544,
      "侍": 545,
      "供": 546,
      "依": 547,
      "侯": 548,
      "便": 549,
      "係": 550,
      "俊": 551,
      "俗": 552,
      "保": 553,
      "信": 554,
      "修": 555,
      "倂": 556,
      "倉": 557,
      "倍": 558,
      "候": 559,
      "借": 560,
      "倫": 561,
      "倭": 562,
      "假": 563,
      "偉": 564,
      "停": 565,
      "健": 566,
      "傅": 567,
      "備": 568,
      "傭": 569,
      "傳": 570,
      "債": 571,
      "傷": 572,
      "僉": 573,
      "像": 574,
      "僕": 575,
      "僞": 576,
      "僧": 577,
      "價": 578,
      "儀": 579,
      "儒": 580,
      "償": 581,
      "優": 582,
      "允": 583,
      "元": 584,
      "兄": 585,
      "充": 586,
      "兆": 587,
      "先": 588,
      "光": 589,
      "克": 590,
      "免": 591,
      "兒": 592,
      "入": 593,
      "內": 594,
      "全": 595,
      "兩": 596,
      "兪": 597,
      "八": 598,
      "公": 599,
      "六": 600,
      "共": 601,
      "兵": 602,
      "其": 603,
      "具": 604,
      "典": 605,
      "兼": 606,
      "内": 607,
      "再": 608,
      "冠": 609,
      "冬": 610,
      "凉": 611,
      "凡": 612,
      "出": 613,
      "函": 614,
      "刀": 615,
      "分": 616,
      "切": 617,
      "刊": 618,
      "刑": 619,
      "列": 620,
      "初": 621,
      "判": 622,
      "別": 623,
      "利": 624,
      "制": 625,
      "券": 626,
      "刺": 627,
      "刻": 628,
      "則": 629,
      "前": 630,
      "剛": 631,
      "副": 632,
      "割": 633,
      "創": 634,
      "劃": 635,
      "劇": 636,
      "劉": 637,
      "劍": 638,
      "力": 639,
      "功": 640,
      "加": 641,
      "助": 642,
      "勇": 643,
      "勒": 644,
      "動": 645,
      "務": 646,
      "勝": 647,
      "勞": 648,
      "勢": 649,
      "勤": 650,
      "勳": 651,
      "包": 652,
      "化": 653,
      "北": 654,
      "匠": 655,
      "匡": 656,
      "区": 657,
      "區": 658,
      "十": 659,
      "千": 660,
      "午": 661,
      "半": 662,
      "卓": 663,
      "協": 664,
      "南": 665,
      "博": 666,
      "卞": 667,
      "占": 668,
      "卯": 669,
      "印": 670,
      "危": 671,
      "却": 672,
      "卷": 673,
      "卿": 674,
      "厚": 675,
      "原": 676,
      "去": 677,
      "參": 678,
      "及": 679,
      "友": 680,
      "反": 681,
      "叔": 682,
      "取": 683,
      "受": 684,
      "口": 685,
      "古": 686,
      "句": 687,
      "召": 688,
      "可": 689,
      "台": 690,
      "史": 691,
      "右": 692,
      "号": 693,
      "司": 694,
      "各": 695,
      "合": 696,
      "吉": 697,
      "同": 698,
      "名": 699,
      "后": 700,
      "吏": 701,
      "向": 702,
      "君": 703,
      "否": 704,
      "含": 705,
      "吳": 706,
      "吾": 707,
      "呂": 708,
      "告": 709,
      "周": 710,
      "味": 711,
      "命": 712,
      "和": 713,
      "咸": 714,
      "哀": 715,
      "品": 716,
      "員": 717,
      "哲": 718,
      "唐": 719,
      "唯": 720,
      "唱": 721,
      "商": 722,
      "問": 723,
      "啓": 724,
      "善": 725,
      "喆": 726,
      "喜": 727,
      "喪": 728,
      "單": 729,
      "嗣": 730,
      "嘉": 731,
      "器": 732,
      "嚴": 733,
      "四": 734,
      "回": 735,
      "因": 736,
      "固": 737,
      "国": 738,
      "圈": 739,
      "國": 740,
      "圍": 741,
      "園": 742,
      "圓": 743,
      "圖": 744,
      "團": 745,
      "土": 746,
      "在": 747,
      "圭": 748,
      "地": 749,
      "址": 750,
      "坂": 751,
      "均": 752,
      "坊": 753,
      "坐": 754,
      "坡": 755,
      "坪": 756,
      "型": 757,
      "城": 758,
      "域": 759,
      "執": 760,
      "基": 761,
      "堂": 762,
      "堅": 763,
      "堤": 764,
      "報": 765,
      "場": 766,
      "塔": 767,
      "塚": 768,
      "境": 769,
      "墓": 770,
      "增": 771,
      "墨": 772,
      "墳": 773,
      "壁": 774,
      "壇": 775,
      "壓": 776,
      "壤": 777,
      "士": 778,
      "壬": 779,
      "壯": 780,
      "壽": 781,
      "夏": 782,
      "外": 783,
      "多": 784,
      "夜": 785,
      "夢": 786,
      "大": 787,
      "天": 788,
      "太": 789,
      "夫": 790,
      "央": 791,
      "失": 792,
      "夷": 793,
      "奇": 794,
      "奈": 795,
      "奉": 796,
      "奎": 797,
      "奏": 798,
      "契": 799,
      "女": 800,
      "奴": 801,
      "好": 802,
      "如": 803,
      "妃": 804,
      "妙": 805,
      "妻": 806,
      "始": 807,
      "姓": 808,
      "委": 809,
      "姜": 810,
      "姬": 811,
      "威": 812,
      "婚": 813,
      "婦": 814,
      "嬪": 815,
      "子": 816,
      "孔": 817,
      "字": 818,
      "存": 819,
      "孝": 820,
      "孟": 821,
      "季": 822,
      "孤": 823,
      "学": 824,
      "孫": 825,
      "學": 826,
      "宅": 827,
      "宇": 828,
      "守": 829,
      "安": 830,
      "宋": 831,
      "完": 832,
      "宏": 833,
      "宗": 834,
      "官": 835,
      "定": 836,
      "宜": 837,
      "客": 838,
      "宣": 839,
      "室": 840,
      "宮": 841,
      "宰": 842,
      "害": 843,
      "家": 844,
      "容": 845,
      "宿": 846,
      "寂": 847,
      "寄": 848,
      "寅": 849,
      "密": 850,
      "富": 851,
      "寒": 852,
      "察": 853,
      "實": 854,
      "寧": 855,
      "審": 856,
      "寫": 857,
      "寬": 858,
      "寶": 859,
      "寺": 860,
      "封": 861,
      "射": 862,
      "將": 863,
      "專": 864,
      "尉": 865,
      "尊": 866,
      "對": 867,
      "導": 868,
      "小": 869,
      "少": 870,
      "尙": 871,
      "就": 872,
      "尹": 873,
      "尺": 874,
      "尼": 875,
      "尾": 876,
      "局": 877,
      "居": 878,
      "屋": 879,
      "展": 880,
      "層": 881,
      "屬": 882,
      "山": 883,
      "岐": 884,
      "岡": 885,
      "岩": 886,
      "岳": 887,
      "岸": 888,
      "峯": 889,
      "峰": 890,
      "峴": 891,
      "島": 892,
      "崇": 893,
      "崎": 894,
      "崔": 895,
      "嶺": 896,
      "巖": 897,
      "川": 898,
      "州": 899,
      "巡": 900,
      "工": 901,
      "左": 902,
      "巨": 903,
      "差": 904,
      "己": 905,
      "巴": 906,
      "市": 907,
      "布": 908,
      "希": 909,
      "帖": 910,
      "帝": 911,
      "帥": 912,
      "師": 913,
      "席": 914,
      "帳": 915,
      "帶": 916,
      "常": 917,
      "幕": 918,
      "干": 919,
      "平": 920,
      "年": 921,
      "幸": 922,
      "幹": 923,
      "序": 924,
      "底": 925,
      "店": 926,
      "庚": 927,
      "府": 928,
      "度": 929,
      "座": 930,
      "庫": 931,
      "庭": 932,
      "庵": 933,
      "庶": 934,
      "康": 935,
      "廉": 936,
      "廟": 937,
      "廢": 938,
      "廣": 939,
      "廳": 940,
      "延": 941,
      "廷": 942,
      "建": 943,
      "式": 944,
      "弓": 945,
      "引": 946,
      "弘": 947,
      "弟": 948,
      "張": 949,
      "强": 950,
      "弼": 951,
      "彈": 952,
      "彌": 953,
      "形": 954,
      "彦": 955,
      "彩": 956,
      "彭": 957,
      "影": 958,
      "役": 959,
      "征": 960,
      "待": 961,
      "律": 962,
      "後": 963,
      "徐": 964,
      "徒": 965,
      "得": 966,
      "從": 967,
      "御": 968,
      "復": 969,
      "微": 970,
      "徳": 971,
      "徵": 972,
      "德": 973,
      "徽": 974,
      "心": 975,
      "必": 976,
      "忍": 977,
      "志": 978,
      "忠": 979,
      "念": 980,
      "思": 981,
      "怠": 982,
      "急": 983,
      "性": 984,
      "恒": 985,
      "恨": 986,
      "恩": 987,
      "恭": 988,
      "悲": 989,
      "情": 990,
      "惑": 991,
      "惟": 992,
      "惠": 993,
      "惡": 994,
      "惱": 995,
      "想": 996,
      "意": 997,
      "愚": 998,
      "愛": 999,
      "感": 1000,
      "愼": 1001,
      "慈": 1002,
      "態": 1003,
      "慕": 1004,
      "慧": 1005,
      "慶": 1006,
      "憲": 1007,
      "應": 1008,
      "懲": 1009,
      "懷": 1010,
      "懿": 1011,
      "戊": 1012,
      "成": 1013,
      "我": 1014,
      "戒": 1015,
      "戦": 1016,
      "戰": 1017,
      "戱": 1018,
      "戶": 1019,
      "戸": 1020,
      "房": 1021,
      "所": 1022,
      "手": 1023,
      "才": 1024,
      "打": 1025,
      "扶": 1026,
      "承": 1027,
      "技": 1028,
      "投": 1029,
      "抗": 1030,
      "押": 1031,
      "拓": 1032,
      "持": 1033,
      "指": 1034,
      "振": 1035,
      "授": 1036,
      "掌": 1037,
      "排": 1038,
      "採": 1039,
      "接": 1040,
      "控": 1041,
      "推": 1042,
      "措": 1043,
      "提": 1044,
      "揚": 1045,
      "換": 1046,
      "援": 1047,
      "損": 1048,
      "搬": 1049,
      "摠": 1050,
      "摩": 1051,
      "撫": 1052,
      "撰": 1053,
      "操": 1054,
      "擔": 1055,
      "擧": 1056,
      "擬": 1057,
      "支": 1058,
      "收": 1059,
      "改": 1060,
      "攻": 1061,
      "放": 1062,
      "政": 1063,
      "故": 1064,
      "效": 1065,
      "敎": 1066,
      "敏": 1067,
      "救": 1068,
      "敗": 1069,
      "散": 1070,
      "敦": 1071,
      "敬": 1072,
      "整": 1073,
      "敵": 1074,
      "數": 1075,
      "文": 1076,
      "斗": 1077,
      "料": 1078,
      "斯": 1079,
      "新": 1080,
      "斷": 1081,
      "方": 1082,
      "於": 1083,
      "施": 1084,
      "旅": 1085,
      "旌": 1086,
      "族": 1087,
      "旗": 1088,
      "日": 1089,
      "旨": 1090,
      "早": 1091,
      "旭": 1092,
      "昇": 1093,
      "昌": 1094,
      "明": 1095,
      "易": 1096,
      "星": 1097,
      "映": 1098,
      "春": 1099,
      "昭": 1100,
      "是": 1101,
      "時": 1102,
      "晉": 1103,
      "晋": 1104,
      "晩": 1105,
      "普": 1106,
      "景": 1107,
      "智": 1108,
      "暴": 1109,
      "曆": 1110,
      "曉": 1111,
      "曲": 1112,
      "更": 1113,
      "書": 1114,
      "曹": 1115,
      "曺": 1116,
      "曾": 1117,
      "最": 1118,
      "會": 1119,
      "月": 1120,
      "有": 1121,
      "服": 1122,
      "朗": 1123,
      "望": 1124,
      "朝": 1125,
      "期": 1126,
      "木": 1127,
      "未": 1128,
      "末": 1129,
      "本": 1130,
      "朱": 1131,
      "朴": 1132,
      "杉": 1133,
      "李": 1134,
      "材": 1135,
      "村": 1136,
      "杜": 1137,
      "束": 1138,
      "条": 1139,
      "杭": 1140,
      "東": 1141,
      "松": 1142,
      "板": 1143,
      "林": 1144,
      "果": 1145,
      "染": 1146,
      "柱": 1147,
      "柳": 1148,
      "査": 1149,
      "栗": 1150,
      "校": 1151,
      "株": 1152,
      "核": 1153,
      "根": 1154,
      "格": 1155,
      "桂": 1156,
      "桃": 1157,
      "案": 1158,
      "桓": 1159,
      "梁": 1160,
      "梅": 1161,
      "條": 1162,
      "梨": 1163,
      "梵": 1164,
      "棄": 1165,
      "森": 1166,
      "植": 1167,
      "楊": 1168,
      "楚": 1169,
      "業": 1170,
      "極": 1171,
      "榮": 1172,
      "構": 1173,
      "樂": 1174,
      "樓": 1175,
      "標": 1176,
      "樞": 1177,
      "模": 1178,
      "樹": 1179,
      "橋": 1180,
      "機": 1181,
      "橫": 1182,
      "檀": 1183,
      "檢": 1184,
      "權": 1185,
      "次": 1186,
      "欲": 1187,
      "欽": 1188,
      "款": 1189,
      "歌": 1190,
      "止": 1191,
      "正": 1192,
      "步": 1193,
      "武": 1194,
      "歲": 1195,
      "歷": 1196,
      "歸": 1197,
      "死": 1198,
      "殊": 1199,
      "段": 1200,
      "殷": 1201,
      "殺": 1202,
      "殿": 1203,
      "毅": 1204,
      "母": 1205,
      "毒": 1206,
      "比": 1207,
      "毛": 1208,
      "氏": 1209,
      "民": 1210,
      "氣": 1211,
      "水": 1212,
      "氷": 1213,
      "永": 1214,
      "求": 1215,
      "汝": 1216,
      "江": 1217,
      "池": 1218,
      "決": 1219,
      "沈": 1220,
      "沒": 1221,
      "沖": 1222,
      "沙": 1223,
      "河": 1224,
      "油": 1225,
      "治": 1226,
      "泉": 1227,
      "法": 1228,
      "波": 1229,
      "注": 1230,
      "泰": 1231,
      "泳": 1232,
      "洋": 1233,
      "洙": 1234,
      "洛": 1235,
      "洞": 1236,
      "津": 1237,
      "洪": 1238,
      "洲": 1239,
      "活": 1240,
      "派": 1241,
      "流": 1242,
      "浙": 1243,
      "浦": 1244,
      "浩": 1245,
      "浪": 1246,
      "浮": 1247,
      "海": 1248,
      "消": 1249,
      "淑": 1250,
      "淨": 1251,
      "淮": 1252,
      "深": 1253,
      "淳": 1254,
      "淵": 1255,
      "淸": 1256,
      "清": 1257,
      "減": 1258,
      "渡": 1259,
      "測": 1260,
      "港": 1261,
      "湖": 1262,
      "湯": 1263,
      "源": 1264,
      "準": 1265,
      "溪": 1266,
      "溫": 1267,
      "滅": 1268,
      "滿": 1269,
      "漁": 1270,
      "漏": 1271,
      "演": 1272,
      "漢": 1273,
      "潘": 1274,
      "潤": 1275,
      "潭": 1276,
      "潮": 1277,
      "澤": 1278,
      "濟": 1279,
      "濤": 1280,
      "瀋": 1281,
      "灣": 1282,
      "火": 1283,
      "災": 1284,
      "炎": 1285,
      "炭": 1286,
      "炳": 1287,
      "烈": 1288,
      "烏": 1289,
      "無": 1290,
      "然": 1291,
      "煥": 1292,
      "照": 1293,
      "煩": 1294,
      "熊": 1295,
      "熙": 1296,
      "熱": 1297,
      "燈": 1298,
      "燕": 1299,
      "營": 1300,
      "燮": 1301,
      "爭": 1302,
      "爲": 1303,
      "父": 1304,
      "爽": 1305,
      "爾": 1306,
      "版": 1307,
      "牙": 1308,
      "牛": 1309,
      "牧": 1310,
      "物": 1311,
      "特": 1312,
      "犬": 1313,
      "犯": 1314,
      "狀": 1315,
      "獄": 1316,
      "獨": 1317,
      "獻": 1318,
      "玄": 1319,
      "率": 1320,
      "玉": 1321,
      "王": 1322,
      "珍": 1323,
      "珠": 1324,
      "班": 1325,
      "現": 1326,
      "球": 1327,
      "理": 1328,
      "琴": 1329,
      "瑞": 1330,
      "環": 1331,
      "甘": 1332,
      "生": 1333,
      "産": 1334,
      "用": 1335,
      "甫": 1336,
      "田": 1337,
      "由": 1338,
      "甲": 1339,
      "申": 1340,
      "男": 1341,
      "町": 1342,
      "界": 1343,
      "留": 1344,
      "畜": 1345,
      "略": 1346,
      "番": 1347,
      "異": 1348,
      "畵": 1349,
      "當": 1350,
      "畿": 1351,
      "疏": 1352,
      "疑": 1353,
      "病": 1354,
      "症": 1355,
      "療": 1356,
      "登": 1357,
      "發": 1358,
      "白": 1359,
      "百": 1360,
      "的": 1361,
      "皇": 1362,
      "皮": 1363,
      "益": 1364,
      "盛": 1365,
      "盟": 1366,
      "監": 1367,
      "盤": 1368,
      "盧": 1369,
      "目": 1370,
      "直": 1371,
      "相": 1372,
      "省": 1373,
      "県": 1374,
      "眞": 1375,
      "真": 1376,
      "眠": 1377,
      "眼": 1378,
      "着": 1379,
      "督": 1380,
      "睦": 1381,
      "瞋": 1382,
      "知": 1383,
      "短": 1384,
      "石": 1385,
      "破": 1386,
      "硏": 1387,
      "碑": 1388,
      "碧": 1389,
      "碩": 1390,
      "確": 1391,
      "磁": 1392,
      "磨": 1393,
      "示": 1394,
      "社": 1395,
      "祐": 1396,
      "祖": 1397,
      "祚": 1398,
      "神": 1399,
      "祠": 1400,
      "祥": 1401,
      "票": 1402,
      "祭": 1403,
      "祿": 1404,
      "禁": 1405,
      "禍": 1406,
      "福": 1407,
      "禪": 1408,
      "禮": 1409,
      "禹": 1410,
      "秀": 1411,
      "私": 1412,
      "秉": 1413,
      "秋": 1414,
      "科": 1415,
      "秘": 1416,
      "租": 1417,
      "秦": 1418,
      "移": 1419,
      "稅": 1420,
      "程": 1421,
      "種": 1422,
      "稱": 1423,
      "稷": 1424,
      "穆": 1425,
      "積": 1426,
      "究": 1427,
      "空": 1428,
      "立": 1429,
      "站": 1430,
      "章": 1431,
      "童": 1432,
      "端": 1433,
      "競": 1434,
      "竹": 1435,
      "符": 1436,
      "第": 1437,
      "筆": 1438,
      "等": 1439,
      "策": 1440,
      "算": 1441,
      "管": 1442,
      "節": 1443,
      "範": 1444,
      "篇": 1445,
      "築": 1446,
      "簡": 1447,
      "簿": 1448,
      "籍": 1449,
      "米": 1450,
      "精": 1451,
      "系": 1452,
      "紀": 1453,
      "約": 1454,
      "紅": 1455,
      "紋": 1456,
      "納": 1457,
      "純": 1458,
      "紙": 1459,
      "級": 1460,
      "素": 1461,
      "紫": 1462,
      "細": 1463,
      "紹": 1464,
      "終": 1465,
      "組": 1466,
      "結": 1467,
      "給": 1468,
      "統": 1469,
      "絶": 1470,
      "經": 1471,
      "綜": 1472,
      "綠": 1473,
      "維": 1474,
      "綱": 1475,
      "網": 1476,
      "線": 1477,
      "緣": 1478,
      "編": 1479,
      "練": 1480,
      "縣": 1481,
      "總": 1482,
      "織": 1483,
      "繼": 1484,
      "續": 1485,
      "缺": 1486,
      "罪": 1487,
      "置": 1488,
      "罰": 1489,
      "署": 1490,
      "羅": 1491,
      "羊": 1492,
      "美": 1493,
      "群": 1494,
      "義": 1495,
      "羽": 1496,
      "翁": 1497,
      "翊": 1498,
      "習": 1499,
      "翰": 1500,
      "翼": 1501,
      "老": 1502,
      "考": 1503,
      "者": 1504,
      "而": 1505,
      "耕": 1506,
      "耳": 1507,
      "耶": 1508,
      "耿": 1509,
      "聖": 1510,
      "聞": 1511,
      "聯": 1512,
      "聲": 1513,
      "職": 1514,
      "聽": 1515,
      "肅": 1516,
      "肉": 1517,
      "肖": 1518,
      "育": 1519,
      "背": 1520,
      "胎": 1521,
      "胡": 1522,
      "胤": 1523,
      "能": 1524,
      "脈": 1525,
      "脫": 1526,
      "腹": 1527,
      "臣": 1528,
      "臨": 1529,
      "自": 1530,
      "至": 1531,
      "致": 1532,
      "臺": 1533,
      "與": 1534,
      "興": 1535,
      "舊": 1536,
      "舌": 1537,
      "舍": 1538,
      "舜": 1539,
      "舞": 1540,
      "舟": 1541,
      "航": 1542,
      "般": 1543,
      "舶": 1544,
      "船": 1545,
      "艦": 1546,
      "良": 1547,
      "色": 1548,
      "芝": 1549,
      "花": 1550,
      "芳": 1551,
      "若": 1552,
      "苦": 1553,
      "英": 1554,
      "茂": 1555,
      "茶": 1556,
      "草": 1557,
      "莊": 1558,
      "菅": 1559,
      "菜": 1560,
      "菩": 1561,
      "華": 1562,
      "萬": 1563,
      "落": 1564,
      "葉": 1565,
      "著": 1566,
      "葛": 1567,
      "董": 1568,
      "葬": 1569,
      "蒙": 1570,
      "蓋": 1571,
      "蓮": 1572,
      "蔚": 1573,
      "蔡": 1574,
      "薛": 1575,
      "薩": 1576,
      "藏": 1577,
      "藝": 1578,
      "藤": 1579,
      "藥": 1580,
      "藩": 1581,
      "蘇": 1582,
      "蘊": 1583,
      "蘭": 1584,
      "虎": 1585,
      "處": 1586,
      "虛": 1587,
      "號": 1588,
      "融": 1589,
      "血": 1590,
      "衆": 1591,
      "行": 1592,
      "術": 1593,
      "街": 1594,
      "衛": 1595,
      "衡": 1596,
      "衣": 1597,
      "表": 1598,
      "袁": 1599,
      "被": 1600,
      "裁": 1601,
      "裕": 1602,
      "補": 1603,
      "裝": 1604,
      "裵": 1605,
      "製": 1606,
      "複": 1607,
      "襄": 1608,
      "西": 1609,
      "要": 1610,
      "見": 1611,
      "規": 1612,
      "視": 1613,
      "親": 1614,
      "覺": 1615,
      "覽": 1616,
      "觀": 1617,
      "角": 1618,
      "解": 1619,
      "觸": 1620,
      "言": 1621,
      "計": 1622,
      "訓": 1623,
      "託": 1624,
      "記": 1625,
      "訟": 1626,
      "訪": 1627,
      "設": 1628,
      "許": 1629,
      "訴": 1630,
      "診": 1631,
      "評": 1632,
      "詞": 1633,
      "試": 1634,
      "詩": 1635,
      "話": 1636,
      "誌": 1637,
      "認": 1638,
      "誘": 1639,
      "語": 1640,
      "誠": 1641,
      "誤": 1642,
      "說": 1643,
      "課": 1644,
      "調": 1645,
      "談": 1646,
      "請": 1647,
      "論": 1648,
      "諡": 1649,
      "諦": 1650,
      "諫": 1651,
      "諸": 1652,
      "謙": 1653,
      "講": 1654,
      "謝": 1655,
      "證": 1656,
      "識": 1657,
      "譜": 1658,
      "警": 1659,
      "譯": 1660,
      "議": 1661,
      "護": 1662,
      "讀": 1663,
      "變": 1664,
      "讓": 1665,
      "谷": 1666,
      "豆": 1667,
      "豊": 1668,
      "象": 1669,
      "豫": 1670,
      "貞": 1671,
      "負": 1672,
      "財": 1673,
      "貢": 1674,
      "貨": 1675,
      "販": 1676,
      "貪": 1677,
      "貫": 1678,
      "責": 1679,
      "貯": 1680,
      "貴": 1681,
      "買": 1682,
      "貸": 1683,
      "費": 1684,
      "賀": 1685,
      "賃": 1686,
      "資": 1687,
      "賈": 1688,
      "賊": 1689,
      "賓": 1690,
      "賜": 1691,
      "賞": 1692,
      "賢": 1693,
      "賣": 1694,
      "賦": 1695,
      "質": 1696,
      "贈": 1697,
      "贊": 1698,
      "赤": 1699,
      "走": 1700,
      "起": 1701,
      "超": 1702,
      "越": 1703,
      "趙": 1704,
      "足": 1705,
      "路": 1706,
      "蹟": 1707,
      "身": 1708,
      "車": 1709,
      "軌": 1710,
      "軍": 1711,
      "軒": 1712,
      "載": 1713,
      "輔": 1714,
      "輕": 1715,
      "輝": 1716,
      "輪": 1717,
      "輸": 1718,
      "轄": 1719,
      "轉": 1720,
      "辛": 1721,
      "辨": 1722,
      "辭": 1723,
      "辰": 1724,
      "農": 1725,
      "近": 1726,
      "迦": 1727,
      "述": 1728,
      "追": 1729,
      "退": 1730,
      "送": 1731,
      "逆": 1732,
      "途": 1733,
      "通": 1734,
      "速": 1735,
      "造": 1736,
      "連": 1737,
      "週": 1738,
      "進": 1739,
      "逸": 1740,
      "遂": 1741,
      "遇": 1742,
      "遊": 1743,
      "運": 1744,
      "過": 1745,
      "道": 1746,
      "達": 1747,
      "違": 1748,
      "遠": 1749,
      "適": 1750,
      "選": 1751,
      "遺": 1752,
      "遼": 1753,
      "還": 1754,
      "邉": 1755,
      "邊": 1756,
      "邑": 1757,
      "那": 1758,
      "邦": 1759,
      "邪": 1760,
      "邱": 1761,
      "郎": 1762,
      "郞": 1763,
      "郡": 1764,
      "部": 1765,
      "郭": 1766,
      "郵": 1767,
      "都": 1768,
      "鄕": 1769,
      "鄧": 1770,
      "鄭": 1771,
      "酉": 1772,
      "配": 1773,
      "酒": 1774,
      "酸": 1775,
      "醫": 1776,
      "釋": 1777,
      "里": 1778,
      "重": 1779,
      "野": 1780,
      "量": 1781,
      "金": 1782,
      "釜": 1783,
      "釣": 1784,
      "鉉": 1785,
      "銀": 1786,
      "銅": 1787,
      "銘": 1788,
      "錄": 1789,
      "錢": 1790,
      "錦": 1791,
      "錫": 1792,
      "鍾": 1793,
      "鎬": 1794,
      "鎭": 1795,
      "鏡": 1796,
      "鐘": 1797,
      "鐵": 1798,
      "鑑": 1799,
      "鑛": 1800,
      "長": 1801,
      "門": 1802,
      "開": 1803,
      "間": 1804,
      "閔": 1805,
      "閣": 1806,
      "閱": 1807,
      "關": 1808,
      "阪": 1809,
      "防": 1810,
      "阿": 1811,
      "陀": 1812,
      "附": 1813,
      "降": 1814,
      "限": 1815,
      "院": 1816,
      "陣": 1817,
      "除": 1818,
      "陰": 1819,
      "陳": 1820,
      "陵": 1821,
      "陶": 1822,
      "陸": 1823,
      "陽": 1824,
      "隆": 1825,
      "隊": 1826,
      "階": 1827,
      "際": 1828,
      "障": 1829,
      "隨": 1830,
      "險": 1831,
      "隱": 1832,
      "雄": 1833,
      "雅": 1834,
      "集": 1835,
      "雇": 1836,
      "雙": 1837,
      "雜": 1838,
      "離": 1839,
      "難": 1840,
      "雨": 1841,
      "雪": 1842,
      "雲": 1843,
      "雷": 1844,
      "電": 1845,
      "需": 1846,
      "震": 1847,
      "露": 1848,
      "靈": 1849,
      "靑": 1850,
      "青": 1851,
      "靖": 1852,
      "靜": 1853,
      "非": 1854,
      "面": 1855,
      "革": 1856,
      "韓": 1857,
      "音": 1858,
      "韻": 1859,
      "頂": 1860,
      "項": 1861,
      "順": 1862,
      "須": 1863,
      "領": 1864,
      "頭": 1865,
      "題": 1866,
      "額": 1867,
      "顔": 1868,
      "願": 1869,
      "類": 1870,
      "顯": 1871,
      "風": 1872,
      "飛": 1873,
      "食": 1874,
      "養": 1875,
      "餘": 1876,
      "館": 1877,
      "首": 1878,
      "香": 1879,
      "馬": 1880,
      "駐": 1881,
      "騎": 1882,
      "驗": 1883,
      "驛": 1884,
      "驪": 1885,
      "骨": 1886,
      "體": 1887,
      "高": 1888,
      "鬪": 1889,
      "鬼": 1890,
      "魏": 1891,
      "魔": 1892,
      "魚": 1893,
      "魯": 1894,
      "鮮": 1895,
      "鳥": 1896,
      "鳳": 1897,
      "鳴": 1898,
      "鴻": 1899,
      "鶴": 1900,
      "鷄": 1901,
      "鹽": 1902,
      "鹿": 1903,
      "麗": 1904,
      "麟": 1905,
      "麻": 1906,
      "黃": 1907,
      "黑": 1908,
      "默": 1909,
      "點": 1910,
      "黨": 1911,
      "鼎": 1912,
      "鼓": 1913,
      "齊": 1914,
      "齋": 1915,
      "齒": 1916,
      "齡": 1917,
      "龍": 1918,
      "龜": 1919,
      "가": 1920,
      "각": 1921,
      "갂": 1922,
      "간": 1923,
      "갇": 1924,
      "갈": 1925,
      "갉": 1926,
      "감": 1927,
      "갑": 1928,
      "값": 1929,
      "갓": 1930,
      "갔": 1931,
      "강": 1932,
      "갖": 1933,
      "갗": 1934,
      "갘": 1935,
      "같": 1936,
      "갚": 1937,
      "갛": 1938,
      "개": 1939,
      "객": 1940,
      "갠": 1941,
      "갤": 1942,
      "갬": 1943,
      "갭": 1944,
      "갮": 1945,
      "갯": 1946,
      "갰": 1947,
      "갱": 1948,
      "갲": 1949,
      "갵": 1950,
      "갸": 1951,
      "갹": 1952,
      "갼": 1953,
      "걀": 1954,
      "걈": 1955,
      "걍": 1956,
      "걑": 1957,
      "걔": 1958,
      "걘": 1959,
      "걩": 1960,
      "거": 1961,
      "걱": 1962,
      "건": 1963,
      "걷": 1964,
      "걸": 1965,
      "검": 1966,
      "겁": 1967,
      "겂": 1968,
      "것": 1969,
      "겄": 1970,
      "겅": 1971,
      "겆": 1972,
      "겈": 1973,
      "겉": 1974,
      "겊": 1975,
      "겋": 1976,
      "게": 1977,
      "겍": 1978,
      "겐": 1979,
      "겔": 1980,
      "겜": 1981,
      "겝": 1982,
      "겟": 1983,
      "겠": 1984,
      "겡": 1985,
      "겢": 1986,
      "겤": 1987,
      "겧": 1988,
      "겨": 1989,
      "격": 1990,
      "겪": 1991,
      "견": 1992,
      "결": 1993,
      "겸": 1994,
      "겹": 1995,
      "겻": 1996,
      "겼": 1997,
      "경": 1998,
      "곀": 1999,
      "곁": 2000,
      "계": 2001,
      "곈": 2002,
      "곌": 2003,
      "곗": 2004,
      "곘": 2005,
      "곙": 2006,
      "고": 2007,
      "곡": 2008,
      "곤": 2009,
      "곧": 2010,
      "골": 2011,
      "곪": 2012,
      "곯": 2013,
      "곰": 2014,
      "곱": 2015,
      "곳": 2016,
      "공": 2017,
      "곶": 2018,
      "곷": 2019,
      "곸": 2020,
      "곹": 2021,
      "곺": 2022,
      "과": 2023,
      "곽": 2024,
      "관": 2025,
      "괄": 2026,
      "괌": 2027,
      "광": 2028,
      "괘": 2029,
      "괜": 2030,
      "괞": 2031,
      "괭": 2032,
      "괴": 2033,
      "괵": 2034,
      "괸": 2035,
      "굉": 2036,
      "교": 2037,
      "굔": 2038,
      "굘": 2039,
      "굣": 2040,
      "굥": 2041,
      "구": 2042,
      "국": 2043,
      "군": 2044,
      "굳": 2045,
      "굴": 2046,
      "굵": 2047,
      "굶": 2048,
      "굷": 2049,
      "굻": 2050,
      "굼": 2051,
      "굽": 2052,
      "굿": 2053,
      "궁": 2054,
      "궂": 2055,
      "궃": 2056,
      "궄": 2057,
      "궈": 2058,
      "궉": 2059,
      "권": 2060,
      "궐": 2061,
      "궛": 2062,
      "궜": 2063,
      "궝": 2064,
      "궤": 2065,
      "궸": 2066,
      "궹": 2067,
      "귀": 2068,
      "귁": 2069,
      "귄": 2070,
      "귈": 2071,
      "귐": 2072,
      "귓": 2073,
      "규": 2074,
      "귝": 2075,
      "균": 2076,
      "귤": 2077,
      "그": 2078,
      "극": 2079,
      "근": 2080,
      "귾": 2081,
      "귿": 2082,
      "글": 2083,
      "긁": 2084,
      "긂": 2085,
      "긇": 2086,
      "금": 2087,
      "급": 2088,
      "긋": 2089,
      "긌": 2090,
      "긍": 2091,
      "긎": 2092,
      "긐": 2093,
      "긑": 2094,
      "긒": 2095,
      "긔": 2096,
      "긕": 2097,
      "긧": 2098,
      "기": 2099,
      "긱": 2100,
      "긴": 2101,
      "긷": 2102,
      "길": 2103,
      "김": 2104,
      "깁": 2105,
      "깂": 2106,
      "깃": 2107,
      "깄": 2108,
      "깅": 2109,
      "깆": 2110,
      "깈": 2111,
      "깉": 2112,
      "깊": 2113,
      "까": 2114,
      "깍": 2115,
      "깎": 2116,
      "깐": 2117,
      "깔": 2118,
      "깜": 2119,
      "깝": 2120,
      "깞": 2121,
      "깟": 2122,
      "깠": 2123,
      "깡": 2124,
      "깢": 2125,
      "깤": 2126,
      "깥": 2127,
      "깨": 2128,
      "깩": 2129,
      "깬": 2130,
      "깰": 2131,
      "깸": 2132,
      "깻": 2133,
      "깼": 2134,
      "깽": 2135,
      "꺄": 2136,
      "꺅": 2137,
      "꺠": 2138,
      "꺵": 2139,
      "꺼": 2140,
      "꺽": 2141,
      "꺾": 2142,
      "껀": 2143,
      "껄": 2144,
      "껌": 2145,
      "껍": 2146,
      "껏": 2147,
      "껐": 2148,
      "껑": 2149,
      "껒": 2150,
      "께": 2151,
      "껜": 2152,
      "껫": 2153,
      "껬": 2154,
      "껭": 2155,
      "껴": 2156,
      "껼": 2157,
      "꼅": 2158,
      "꼇": 2159,
      "꼈": 2160,
      "꼐": 2161,
      "꼬": 2162,
      "꼭": 2163,
      "꼰": 2164,
      "꼳": 2165,
      "꼴": 2166,
      "꼼": 2167,
      "꼽": 2168,
      "꼿": 2169,
      "꽁": 2170,
      "꽂": 2171,
      "꽃": 2172,
      "꽅": 2173,
      "꽈": 2174,
      "꽉": 2175,
      "꽊": 2176,
      "꽌": 2177,
      "꽐": 2178,
      "꽝": 2179,
      "꽤": 2180,
      "꽥": 2181,
      "꽹": 2182,
      "꾀": 2183,
      "꾐": 2184,
      "꾜": 2185,
      "꾸": 2186,
      "꾹": 2187,
      "꾼": 2188,
      "꾾": 2189,
      "꾿": 2190,
      "꿀": 2191,
      "꿁": 2192,
      "꿇": 2193,
      "꿈": 2194,
      "꿉": 2195,
      "꿋": 2196,
      "꿍": 2197,
      "꿎": 2198,
      "꿏": 2199,
      "꿑": 2200,
      "꿔": 2201,
      "꿘": 2202,
      "꿜": 2203,
      "꿧": 2204,
      "꿨": 2205,
      "꿩": 2206,
      "꿰": 2207,
      "꿱": 2208,
      "뀌": 2209,
      "뀐": 2210,
      "뀔": 2211,
      "뀜": 2212,
      "뀝": 2213,
      "뀠": 2214,
      "뀨": 2215,
      "끄": 2216,
      "끅": 2217,
      "끈": 2218,
      "끊": 2219,
      "끋": 2220,
      "끌": 2221,
      "끍": 2222,
      "끓": 2223,
      "끔": 2224,
      "끕": 2225,
      "끗": 2226,
      "끙": 2227,
      "끝": 2228,
      "끠": 2229,
      "끼": 2230,
      "끽": 2231,
      "낀": 2232,
      "낄": 2233,
      "낌": 2234,
      "낍": 2235,
      "낏": 2236,
      "낑": 2237,
      "낔": 2238,
      "나": 2239,
      "낙": 2240,
      "낚": 2241,
      "난": 2242,
      "낟": 2243,
      "날": 2244,
      "낡": 2245,
      "남": 2246,
      "납": 2247,
      "낫": 2248,
      "났": 2249,
      "낭": 2250,
      "낮": 2251,
      "낯": 2252,
      "낰": 2253,
      "낱": 2254,
      "낲": 2255,
      "낳": 2256,
      "내": 2257,
      "낵": 2258,
      "낸": 2259,
      "낼": 2260,
      "냄": 2261,
      "냅": 2262,
      "냇": 2263,
      "냈": 2264,
      "냉": 2265,
      "냌": 2266,
      "냐": 2267,
      "냑": 2268,
      "냔": 2269,
      "냘": 2270,
      "냠": 2271,
      "냣": 2272,
      "냥": 2273,
      "냨": 2274,
      "냬": 2275,
      "너": 2276,
      "넉": 2277,
      "넋": 2278,
      "넌": 2279,
      "널": 2280,
      "넒": 2281,
      "넓": 2282,
      "넖": 2283,
      "넘": 2284,
      "넙": 2285,
      "넛": 2286,
      "넜": 2287,
      "넝": 2288,
      "넠": 2289,
      "넣": 2290,
      "네": 2291,
      "넥": 2292,
      "넨": 2293,
      "넬": 2294,
      "넴": 2295,
      "넵": 2296,
      "넷": 2297,
      "넸": 2298,
      "넹": 2299,
      "넼": 2300,
      "넿": 2301,
      "녀": 2302,
      "녁": 2303,
      "년": 2304,
      "녈": 2305,
      "념": 2306,
      "녓": 2307,
      "녔": 2308,
      "녕": 2309,
      "녘": 2310,
      "녛": 2311,
      "녜": 2312,
      "녠": 2313,
      "녤": 2314,
      "노": 2315,
      "녹": 2316,
      "논": 2317,
      "놀": 2318,
      "놈": 2319,
      "놉": 2320,
      "놋": 2321,
      "놌": 2322,
      "농": 2323,
      "놐": 2324,
      "높": 2325,
      "놓": 2326,
      "놔": 2327,
      "놘": 2328,
      "놧": 2329,
      "놨": 2330,
      "놯": 2331,
      "놰": 2332,
      "뇌": 2333,
      "뇐": 2334,
      "뇜": 2335,
      "뇨": 2336,
      "뇬": 2337,
      "뇰": 2338,
      "뇸": 2339,
      "뇽": 2340,
      "누": 2341,
      "눅": 2342,
      "눈": 2343,
      "눌": 2344,
      "눔": 2345,
      "눕": 2346,
      "눗": 2347,
      "눙": 2348,
      "눜": 2349,
      "눞": 2350,
      "눟": 2351,
      "눠": 2352,
      "눤": 2353,
      "눴": 2354,
      "눼": 2355,
      "뉘": 2356,
      "뉜": 2357,
      "뉠": 2358,
      "뉨": 2359,
      "뉩": 2360,
      "뉴": 2361,
      "뉸": 2362,
      "늄": 2363,
      "늉": 2364,
      "느": 2365,
      "늑": 2366,
      "는": 2367,
      "늕": 2368,
      "늗": 2369,
      "늘": 2370,
      "늙": 2371,
      "늟": 2372,
      "늠": 2373,
      "늡": 2374,
      "늣": 2375,
      "능": 2376,
      "늦": 2377,
      "늧": 2378,
      "늨": 2379,
      "늪": 2380,
      "늫": 2381,
      "늬": 2382,
      "니": 2383,
      "닉": 2384,
      "닌": 2385,
      "닏": 2386,
      "닐": 2387,
      "님": 2388,
      "닙": 2389,
      "닛": 2390,
      "닜": 2391,
      "닝": 2392,
      "닞": 2393,
      "닠": 2394,
      "닢": 2395,
      "다": 2396,
      "닥": 2397,
      "닦": 2398,
      "단": 2399,
      "닫": 2400,
      "달": 2401,
      "닭": 2402,
      "닮": 2403,
      "닯": 2404,
      "닳": 2405,
      "담": 2406,
      "답": 2407,
      "닶": 2408,
      "닷": 2409,
      "닸": 2410,
      "당": 2411,
      "닺": 2412,
      "닻": 2413,
      "닼": 2414,
      "닽": 2415,
      "닾": 2416,
      "닿": 2417,
      "대": 2418,
      "댁": 2419,
      "댄": 2420,
      "댇": 2421,
      "댈": 2422,
      "댐": 2423,
      "댑": 2424,
      "댓": 2425,
      "댔": 2426,
      "댕": 2427,
      "댖": 2428,
      "댘": 2429,
      "댜": 2430,
      "댠": 2431,
      "댤": 2432,
      "댯": 2433,
      "댱": 2434,
      "댸": 2435,
      "더": 2436,
      "덕": 2437,
      "던": 2438,
      "덜": 2439,
      "덟": 2440,
      "덤": 2441,
      "덥": 2442,
      "덧": 2443,
      "덩": 2444,
      "덪": 2445,
      "덫": 2446,
      "덮": 2447,
      "덯": 2448,
      "데": 2449,
      "덱": 2450,
      "덴": 2451,
      "델": 2452,
      "뎀": 2453,
      "뎁": 2454,
      "뎃": 2455,
      "뎄": 2456,
      "뎅": 2457,
      "뎈": 2458,
      "뎌": 2459,
      "뎐": 2460,
      "뎠": 2461,
      "뎡": 2462,
      "뎨": 2463,
      "뎬": 2464,
      "도": 2465,
      "독": 2466,
      "돈": 2467,
      "돋": 2468,
      "돌": 2469,
      "돔": 2470,
      "돕": 2471,
      "돗": 2472,
      "동": 2473,
      "돚": 2474,
      "돛": 2475,
      "돜": 2476,
      "돟": 2477,
      "돠": 2478,
      "돤": 2479,
      "돨": 2480,
      "돴": 2481,
      "돼": 2482,
      "됀": 2483,
      "됄": 2484,
      "됌": 2485,
      "됍": 2486,
      "됏": 2487,
      "됐": 2488,
      "되": 2489,
      "됙": 2490,
      "된": 2491,
      "될": 2492,
      "됨": 2493,
      "됩": 2494,
      "됫": 2495,
      "됬": 2496,
      "됭": 2497,
      "됴": 2498,
      "둉": 2499,
      "두": 2500,
      "둑": 2501,
      "둔": 2502,
      "둗": 2503,
      "둘": 2504,
      "둠": 2505,
      "둡": 2506,
      "둣": 2507,
      "둥": 2508,
      "둬": 2509,
      "둰": 2510,
      "둿": 2511,
      "뒀": 2512,
      "뒈": 2513,
      "뒤": 2514,
      "뒨": 2515,
      "뒬": 2516,
      "뒷": 2517,
      "뒸": 2518,
      "뒹": 2519,
      "뒺": 2520,
      "듀": 2521,
      "듁": 2522,
      "듄": 2523,
      "듈": 2524,
      "듐": 2525,
      "듕": 2526,
      "드": 2527,
      "득": 2528,
      "든": 2529,
      "듣": 2530,
      "들": 2531,
      "듥": 2532,
      "듦": 2533,
      "듫": 2534,
      "듬": 2535,
      "듭": 2536,
      "듯": 2537,
      "등": 2538,
      "듲": 2539,
      "듵": 2540,
      "듷": 2541,
      "듸": 2542,
      "듼": 2543,
      "딋": 2544,
      "딍": 2545,
      "디": 2546,
      "딕": 2547,
      "딘": 2548,
      "딛": 2549,
      "딜": 2550,
      "딤": 2551,
      "딥": 2552,
      "딧": 2553,
      "딨": 2554,
      "딩": 2555,
      "딪": 2556,
      "딫": 2557,
      "따": 2558,
      "딱": 2559,
      "딲": 2560,
      "딴": 2561,
      "딸": 2562,
      "딹": 2563,
      "땀": 2564,
      "땁": 2565,
      "땃": 2566,
      "땄": 2567,
      "땅": 2568,
      "땈": 2569,
      "땋": 2570,
      "때": 2571,
      "땍": 2572,
      "땐": 2573,
      "땔": 2574,
      "땜": 2575,
      "땝": 2576,
      "땟": 2577,
      "땠": 2578,
      "땡": 2579,
      "땨": 2580,
      "떄": 2581,
      "떈": 2582,
      "떔": 2583,
      "떙": 2584,
      "떠": 2585,
      "떡": 2586,
      "떢": 2587,
      "떤": 2588,
      "떨": 2589,
      "떫": 2590,
      "떰": 2591,
      "떱": 2592,
      "떳": 2593,
      "떴": 2594,
      "떵": 2595,
      "떻": 2596,
      "떼": 2597,
      "떽": 2598,
      "뗀": 2599,
      "뗄": 2600,
      "뗌": 2601,
      "뗏": 2602,
      "뗐": 2603,
      "뗑": 2604,
      "뗘": 2605,
      "뗴": 2606,
      "또": 2607,
      "똑": 2608,
      "똔": 2609,
      "똘": 2610,
      "똠": 2611,
      "똣": 2612,
      "똥": 2613,
      "똫": 2614,
      "똬": 2615,
      "똭": 2616,
      "뙇": 2617,
      "뙈": 2618,
      "뙤": 2619,
      "뙨": 2620,
      "뚕": 2621,
      "뚜": 2622,
      "뚝": 2623,
      "뚠": 2624,
      "뚤": 2625,
      "뚫": 2626,
      "뚯": 2627,
      "뚱": 2628,
      "뚸": 2629,
      "뛔": 2630,
      "뛰": 2631,
      "뛴": 2632,
      "뛸": 2633,
      "뜀": 2634,
      "뜁": 2635,
      "뜨": 2636,
      "뜩": 2637,
      "뜬": 2638,
      "뜯": 2639,
      "뜰": 2640,
      "뜷": 2641,
      "뜸": 2642,
      "뜹": 2643,
      "뜻": 2644,
      "뜽": 2645,
      "뜾": 2646,
      "띁": 2647,
      "띄": 2648,
      "띈": 2649,
      "띌": 2650,
      "띔": 2651,
      "띠": 2652,
      "띡": 2653,
      "띤": 2654,
      "띨": 2655,
      "띰": 2656,
      "띱": 2657,
      "띵": 2658,
      "라": 2659,
      "락": 2660,
      "란": 2661,
      "랃": 2662,
      "랄": 2663,
      "람": 2664,
      "랍": 2665,
      "랏": 2666,
      "랐": 2667,
      "랑": 2668,
      "랒": 2669,
      "랔": 2670,
      "랖": 2671,
      "랗": 2672,
      "래": 2673,
      "랙": 2674,
      "랜": 2675,
      "랠": 2676,
      "램": 2677,
      "랩": 2678,
      "랫": 2679,
      "랬": 2680,
      "랭": 2681,
      "랰": 2682,
      "랳": 2683,
      "랴": 2684,
      "략": 2685,
      "랸": 2686,
      "랼": 2687,
      "럄": 2688,
      "럈": 2689,
      "량": 2690,
      "럐": 2691,
      "러": 2692,
      "럭": 2693,
      "런": 2694,
      "럴": 2695,
      "럼": 2696,
      "럽": 2697,
      "럾": 2698,
      "럿": 2699,
      "렀": 2700,
      "렁": 2701,
      "렂": 2702,
      "렆": 2703,
      "렇": 2704,
      "레": 2705,
      "렉": 2706,
      "렌": 2707,
      "렐": 2708,
      "렘": 2709,
      "렙": 2710,
      "렛": 2711,
      "렜": 2712,
      "렝": 2713,
      "렠": 2714,
      "렣": 2715,
      "려": 2716,
      "력": 2717,
      "련": 2718,
      "렬": 2719,
      "렴": 2720,
      "렵": 2721,
      "렷": 2722,
      "렸": 2723,
      "령": 2724,
      "렼": 2725,
      "렿": 2726,
      "례": 2727,
      "롄": 2728,
      "로": 2729,
      "록": 2730,
      "론": 2731,
      "롤": 2732,
      "롬": 2733,
      "롭": 2734,
      "롯": 2735,
      "롱": 2736,
      "롲": 2737,
      "롴": 2738,
      "롷": 2739,
      "롸": 2740,
      "롹": 2741,
      "롼": 2742,
      "뢀": 2743,
      "뢍": 2744,
      "뢔": 2745,
      "뢰": 2746,
      "뢴": 2747,
      "룀": 2748,
      "료": 2749,
      "룐": 2750,
      "룔": 2751,
      "룡": 2752,
      "루": 2753,
      "룩": 2754,
      "룬": 2755,
      "룰": 2756,
      "룸": 2757,
      "룹": 2758,
      "룻": 2759,
      "룽": 2760,
      "뤄": 2761,
      "뤈": 2762,
      "뤌": 2763,
      "뤘": 2764,
      "뤠": 2765,
      "뤡": 2766,
      "뤼": 2767,
      "뤽": 2768,
      "륀": 2769,
      "륄": 2770,
      "류": 2771,
      "륙": 2772,
      "륜": 2773,
      "률": 2774,
      "륨": 2775,
      "륭": 2776,
      "르": 2777,
      "륵": 2778,
      "른": 2779,
      "를": 2780,
      "름": 2781,
      "릅": 2782,
      "릇": 2783,
      "릉": 2784,
      "릎": 2785,
      "릏": 2786,
      "릐": 2787,
      "리": 2788,
      "릭": 2789,
      "린": 2790,
      "릴": 2791,
      "림": 2792,
      "립": 2793,
      "릿": 2794,
      "맀": 2795,
      "링": 2796,
      "맂": 2797,
      "맄": 2798,
      "맆": 2799,
      "맇": 2800,
      "마": 2801,
      "막": 2802,
      "맊": 2803,
      "만": 2804,
      "맍": 2805,
      "많": 2806,
      "맏": 2807,
      "말": 2808,
      "맑": 2809,
      "맗": 2810,
      "맘": 2811,
      "맙": 2812,
      "맛": 2813,
      "맜": 2814,
      "망": 2815,
      "맞": 2816,
      "맟": 2817,
      "맠": 2818,
      "맡": 2819,
      "맣": 2820,
      "매": 2821,
      "맥": 2822,
      "맨": 2823,
      "맬": 2824,
      "맴": 2825,
      "맵": 2826,
      "맷": 2827,
      "맸": 2828,
      "맹": 2829,
      "맺": 2830,
      "먀": 2831,
      "먄": 2832,
      "먈": 2833,
      "먕": 2834,
      "먜": 2835,
      "머": 2836,
      "먹": 2837,
      "먼": 2838,
      "먾": 2839,
      "멀": 2840,
      "멈": 2841,
      "멉": 2842,
      "멊": 2843,
      "멋": 2844,
      "멌": 2845,
      "멍": 2846,
      "멎": 2847,
      "멏": 2848,
      "멓": 2849,
      "메": 2850,
      "멕": 2851,
      "멘": 2852,
      "멜": 2853,
      "멤": 2854,
      "멧": 2855,
      "멨": 2856,
      "멩": 2857,
      "며": 2858,
      "멱": 2859,
      "면": 2860,
      "멸": 2861,
      "몀": 2862,
      "몃": 2863,
      "몄": 2864,
      "명": 2865,
      "몆": 2866,
      "몇": 2867,
      "몈": 2868,
      "몌": 2869,
      "몐": 2870,
      "모": 2871,
      "목": 2872,
      "몪": 2873,
      "몫": 2874,
      "몬": 2875,
      "몯": 2876,
      "몰": 2877,
      "몸": 2878,
      "몹": 2879,
      "못": 2880,
      "몼": 2881,
      "몽": 2882,
      "몾": 2883,
      "몿": 2884,
      "뫃": 2885,
      "뫄": 2886,
      "뫈": 2887,
      "뫠": 2888,
      "뫼": 2889,
      "묀": 2890,
      "묄": 2891,
      "묘": 2892,
      "묙": 2893,
      "묜": 2894,
      "묫": 2895,
      "묭": 2896,
      "무": 2897,
      "묵": 2898,
      "묶": 2899,
      "문": 2900,
      "묹": 2901,
      "묻": 2902,
      "물": 2903,
      "묽": 2904,
      "뭄": 2905,
      "뭅": 2906,
      "뭇": 2907,
      "뭉": 2908,
      "뭌": 2909,
      "뭍": 2910,
      "뭏": 2911,
      "뭐": 2912,
      "뭔": 2913,
      "뭘": 2914,
      "뭠": 2915,
      "뭡": 2916,
      "뭣": 2917,
      "뭤": 2918,
      "뭥": 2919,
      "뭨": 2920,
      "뭬": 2921,
      "뮈": 2922,
      "뮌": 2923,
      "뮐": 2924,
      "뮙": 2925,
      "뮛": 2926,
      "뮤": 2927,
      "뮨": 2928,
      "뮬": 2929,
      "뮴": 2930,
      "뮹": 2931,
      "므": 2932,
      "믁": 2933,
      "믄": 2934,
      "믈": 2935,
      "믐": 2936,
      "믓": 2937,
      "믕": 2938,
      "믜": 2939,
      "미": 2940,
      "믹": 2941,
      "민": 2942,
      "믽": 2943,
      "믾": 2944,
      "믿": 2945,
      "밀": 2946,
      "밈": 2947,
      "밉": 2948,
      "밋": 2949,
      "밌": 2950,
      "밍": 2951,
      "밎": 2952,
      "및": 2953,
      "밑": 2954,
      "바": 2955,
      "박": 2956,
      "밖": 2957,
      "반": 2958,
      "받": 2959,
      "발": 2960,
      "밝": 2961,
      "밞": 2962,
      "밟": 2963,
      "밢": 2964,
      "밣": 2965,
      "밤": 2966,
      "밥": 2967,
      "밦": 2968,
      "밧": 2969,
      "밨": 2970,
      "방": 2971,
      "밪": 2972,
      "밬": 2973,
      "밭": 2974,
      "밯": 2975,
      "배": 2976,
      "백": 2977,
      "밴": 2978,
      "밷": 2979,
      "밸": 2980,
      "뱀": 2981,
      "뱁": 2982,
      "뱃": 2983,
      "뱄": 2984,
      "뱅": 2985,
      "뱉": 2986,
      "뱌": 2987,
      "뱍": 2988,
      "뱐": 2989,
      "뱔": 2990,
      "뱡": 2991,
      "뱸": 2992,
      "버": 2993,
      "벅": 2994,
      "번": 2995,
      "벋": 2996,
      "벌": 2997,
      "범": 2998,
      "법": 2999,
      "벗": 3000,
      "벙": 3001,
      "벚": 3002,
      "벛": 3003,
      "벞": 3004,
      "베": 3005,
      "벡": 3006,
      "벤": 3007,
      "벧": 3008,
      "벨": 3009,
      "벰": 3010,
      "벱": 3011,
      "벳": 3012,
      "벵": 3013,
      "벹": 3014,
      "벼": 3015,
      "벽": 3016,
      "변": 3017,
      "별": 3018,
      "볌": 3019,
      "볍": 3020,
      "볏": 3021,
      "볐": 3022,
      "병": 3023,
      "볓": 3024,
      "볔": 3025,
      "볕": 3026,
      "볗": 3027,
      "볘": 3028,
      "볜": 3029,
      "보": 3030,
      "복": 3031,
      "볶": 3032,
      "본": 3033,
      "볻": 3034,
      "볼": 3035,
      "봄": 3036,
      "봅": 3037,
      "봇": 3038,
      "봉": 3039,
      "봊": 3040,
      "봌": 3041,
      "봍": 3042,
      "봐": 3043,
      "봑": 3044,
      "봔": 3045,
      "봘": 3046,
      "봣": 3047,
      "봤": 3048,
      "봥": 3049,
      "봨": 3050,
      "봬": 3051,
      "뵀": 3052,
      "뵈": 3053,
      "뵌": 3054,
      "뵐": 3055,
      "뵙": 3056,
      "뵜": 3057,
      "뵤": 3058,
      "뵨": 3059,
      "뵹": 3060,
      "부": 3061,
      "북": 3062,
      "붂": 3063,
      "분": 3064,
      "붇": 3065,
      "불": 3066,
      "붉": 3067,
      "붏": 3068,
      "붐": 3069,
      "붑": 3070,
      "붓": 3071,
      "붕": 3072,
      "붘": 3073,
      "붙": 3074,
      "붛": 3075,
      "붜": 3076,
      "붤": 3077,
      "붱": 3078,
      "붸": 3079,
      "뷁": 3080,
      "뷍": 3081,
      "뷔": 3082,
      "뷘": 3083,
      "뷩": 3084,
      "뷰": 3085,
      "뷱": 3086,
      "뷴": 3087,
      "뷸": 3088,
      "븀": 3089,
      "븅": 3090,
      "브": 3091,
      "븍": 3092,
      "븐": 3093,
      "블": 3094,
      "븡": 3095,
      "븥": 3096,
      "븨": 3097,
      "븽": 3098,
      "비": 3099,
      "빅": 3100,
      "빈": 3101,
      "빋": 3102,
      "빌": 3103,
      "빍": 3104,
      "빔": 3105,
      "빕": 3106,
      "빗": 3107,
      "빙": 3108,
      "빚": 3109,
      "빛": 3110,
      "빠": 3111,
      "빡": 3112,
      "빢": 3113,
      "빤": 3114,
      "빨": 3115,
      "빩": 3116,
      "빰": 3117,
      "빱": 3118,
      "빳": 3119,
      "빴": 3120,
      "빵": 3121,
      "빻": 3122,
      "빼": 3123,
      "빽": 3124,
      "뺀": 3125,
      "뺃": 3126,
      "뺄": 3127,
      "뺌": 3128,
      "뺍": 3129,
      "뺏": 3130,
      "뺐": 3131,
      "뺑": 3132,
      "뺕": 3133,
      "뺘": 3134,
      "뺠": 3135,
      "뺨": 3136,
      "뺴": 3137,
      "뺵": 3138,
      "뻇": 3139,
      "뻐": 3140,
      "뻑": 3141,
      "뻔": 3142,
      "뻗": 3143,
      "뻘": 3144,
      "뻠": 3145,
      "뻡": 3146,
      "뻣": 3147,
      "뻤": 3148,
      "뻥": 3149,
      "뻬": 3150,
      "뻰": 3151,
      "뻴": 3152,
      "뻿": 3153,
      "뼈": 3154,
      "뼉": 3155,
      "뼌": 3156,
      "뼘": 3157,
      "뼛": 3158,
      "뼝": 3159,
      "뼤": 3160,
      "뽀": 3161,
      "뽁": 3162,
      "뽂": 3163,
      "뽄": 3164,
      "뽈": 3165,
      "뽐": 3166,
      "뽑": 3167,
      "뽕": 3168,
      "뽜": 3169,
      "뽝": 3170,
      "뽤": 3171,
      "뾰": 3172,
      "뿅": 3173,
      "뿌": 3174,
      "뿍": 3175,
      "뿐": 3176,
      "뿔": 3177,
      "뿜": 3178,
      "뿟": 3179,
      "뿡": 3180,
      "쀼": 3181,
      "쁀": 3182,
      "쁑": 3183,
      "쁘": 3184,
      "쁜": 3185,
      "쁠": 3186,
      "쁨": 3187,
      "쁩": 3188,
      "삐": 3189,
      "삑": 3190,
      "삔": 3191,
      "삘": 3192,
      "삣": 3193,
      "삥": 3194,
      "사": 3195,
      "삭": 3196,
      "삮": 3197,
      "삯": 3198,
      "산": 3199,
      "살": 3200,
      "삵": 3201,
      "삶": 3202,
      "삷": 3203,
      "삻": 3204,
      "삼": 3205,
      "삽": 3206,
      "삿": 3207,
      "샀": 3208,
      "상": 3209,
      "샄": 3210,
      "샅": 3211,
      "샆": 3212,
      "샇": 3213,
      "새": 3214,
      "색": 3215,
      "샊": 3216,
      "샋": 3217,
      "샌": 3218,
      "샏": 3219,
      "샐": 3220,
      "샘": 3221,
      "샙": 3222,
      "샛": 3223,
      "샜": 3224,
      "생": 3225,
      "샠": 3226,
      "샡": 3227,
      "샣": 3228,
      "샤": 3229,
      "샥": 3230,
      "샨": 3231,
      "샬": 3232,
      "샴": 3233,
      "샵": 3234,
      "샷": 3235,
      "샹": 3236,
      "샾": 3237,
      "섀": 3238,
      "섁": 3239,
      "섕": 3240,
      "섘": 3241,
      "서": 3242,
      "석": 3243,
      "섞": 3244,
      "선": 3245,
      "섣": 3246,
      "설": 3247,
      "섥": 3248,
      "섬": 3249,
      "섭": 3250,
      "섮": 3251,
      "섯": 3252,
      "섰": 3253,
      "성": 3254,
      "섲": 3255,
      "섴": 3256,
      "섶": 3257,
      "세": 3258,
      "섹": 3259,
      "섺": 3260,
      "섻": 3261,
      "센": 3262,
      "셀": 3263,
      "셈": 3264,
      "셉": 3265,
      "셋": 3266,
      "셌": 3267,
      "셍": 3268,
      "셐": 3269,
      "셑": 3270,
      "셓": 3271,
      "셔": 3272,
      "셕": 3273,
      "션": 3274,
      "셜": 3275,
      "셤": 3276,
      "셥": 3277,
      "셧": 3278,
      "셨": 3279,
      "셩": 3280,
      "셰": 3281,
      "셱": 3282,
      "셴": 3283,
      "셸": 3284,
      "솅": 3285,
      "소": 3286,
      "속": 3287,
      "솎": 3288,
      "손": 3289,
      "솓": 3290,
      "솔": 3291,
      "솜": 3292,
      "솝": 3293,
      "솟": 3294,
      "송": 3295,
      "솤": 3296,
      "솥": 3297,
      "솨": 3298,
      "솬": 3299,
      "솰": 3300,
      "솼": 3301,
      "솽": 3302,
      "쇄": 3303,
      "쇅": 3304,
      "쇆": 3305,
      "쇗": 3306,
      "쇜": 3307,
      "쇠": 3308,
      "쇡": 3309,
      "쇤": 3310,
      "쇳": 3311,
      "쇼": 3312,
      "쇽": 3313,
      "숀": 3314,
      "숄": 3315,
      "숍": 3316,
      "숏": 3317,
      "숑": 3318,
      "숖": 3319,
      "수": 3320,
      "숙": 3321,
      "순": 3322,
      "숟": 3323,
      "술": 3324,
      "숨": 3325,
      "숩": 3326,
      "숫": 3327,
      "숭": 3328,
      "숮": 3329,
      "숯": 3330,
      "숱": 3331,
      "숲": 3332,
      "숴": 3333,
      "숵": 3334,
      "숸": 3335,
      "숼": 3336,
      "쉅": 3337,
      "쉈": 3338,
      "쉌": 3339,
      "쉐": 3340,
      "쉑": 3341,
      "쉒": 3342,
      "쉔": 3343,
      "쉘": 3344,
      "쉡": 3345,
      "쉣": 3346,
      "쉥": 3347,
      "쉨": 3348,
      "쉬": 3349,
      "쉭": 3350,
      "쉰": 3351,
      "쉴": 3352,
      "쉼": 3353,
      "쉽": 3354,
      "쉿": 3355,
      "슁": 3356,
      "슆": 3357,
      "슈": 3358,
      "슉": 3359,
      "슌": 3360,
      "슐": 3361,
      "슘": 3362,
      "슙": 3363,
      "슛": 3364,
      "슝": 3365,
      "스": 3366,
      "슥": 3367,
      "슨": 3368,
      "슬": 3369,
      "슭": 3370,
      "슴": 3371,
      "습": 3372,
      "슷": 3373,
      "승": 3374,
      "슼": 3375,
      "슾": 3376,
      "싀": 3377,
      "싁": 3378,
      "싄": 3379,
      "싈": 3380,
      "싑": 3381,
      "시": 3382,
      "식": 3383,
      "싞": 3384,
      "신": 3385,
      "싡": 3386,
      "싢": 3387,
      "싣": 3388,
      "실": 3389,
      "싦": 3390,
      "싨": 3391,
      "싫": 3392,
      "심": 3393,
      "십": 3394,
      "싮": 3395,
      "싯": 3396,
      "싰": 3397,
      "싱": 3398,
      "싲": 3399,
      "싴": 3400,
      "싶": 3401,
      "싷": 3402,
      "싸": 3403,
      "싹": 3404,
      "싼": 3405,
      "쌀": 3406,
      "쌂": 3407,
      "쌈": 3408,
      "쌉": 3409,
      "쌋": 3410,
      "쌌": 3411,
      "쌍": 3412,
      "쌓": 3413,
      "쌔": 3414,
      "쌕": 3415,
      "쌖": 3416,
      "쌘": 3417,
      "쌤": 3418,
      "쌥": 3419,
      "쌧": 3420,
      "쌨": 3421,
      "쌩": 3422,
      "쌬": 3423,
      "쌰": 3424,
      "썁": 3425,
      "썅": 3426,
      "썌": 3427,
      "썡": 3428,
      "써": 3429,
      "썩": 3430,
      "썪": 3431,
      "썬": 3432,
      "썰": 3433,
      "썸": 3434,
      "썹": 3435,
      "썻": 3436,
      "썼": 3437,
      "썽": 3438,
      "쎀": 3439,
      "쎄": 3440,
      "쎅": 3441,
      "쎆": 3442,
      "쎈": 3443,
      "쎌": 3444,
      "쎔": 3445,
      "쎗": 3446,
      "쎘": 3447,
      "쎜": 3448,
      "쎠": 3449,
      "쎼": 3450,
      "쏀": 3451,
      "쏘": 3452,
      "쏙": 3453,
      "쏜": 3454,
      "쏟": 3455,
      "쏠": 3456,
      "쏨": 3457,
      "쏩": 3458,
      "쏫": 3459,
      "쏭": 3460,
      "쏱": 3461,
      "쏴": 3462,
      "쏵": 3463,
      "쏼": 3464,
      "쐇": 3465,
      "쐈": 3466,
      "쐉": 3467,
      "쐐": 3468,
      "쐑": 3469,
      "쐬": 3470,
      "쑈": 3471,
      "쑝": 3472,
      "쑤": 3473,
      "쑥": 3474,
      "쑨": 3475,
      "쑬": 3476,
      "쑴": 3477,
      "쑵": 3478,
      "쑹": 3479,
      "쒀": 3480,
      "쒜": 3481,
      "쒝": 3482,
      "쒞": 3483,
      "쒴": 3484,
      "쒸": 3485,
      "쒹": 3486,
      "쒼": 3487,
      "쓉": 3488,
      "쓔": 3489,
      "쓥": 3490,
      "쓩": 3491,
      "쓰": 3492,
      "쓱": 3493,
      "쓴": 3494,
      "쓸": 3495,
      "씀": 3496,
      "씁": 3497,
      "씅": 3498,
      "씌": 3499,
      "씐": 3500,
      "씝": 3501,
      "씞": 3502,
      "씦": 3503,
      "씨": 3504,
      "씩": 3505,
      "씬": 3506,
      "씰": 3507,
      "씸": 3508,
      "씹": 3509,
      "씻": 3510,
      "씼": 3511,
      "씽": 3512,
      "앂": 3513,
      "아": 3514,
      "악": 3515,
      "안": 3516,
      "앉": 3517,
      "않": 3518,
      "앋": 3519,
      "알": 3520,
      "앍": 3521,
      "앎": 3522,
      "앏": 3523,
      "앓": 3524,
      "암": 3525,
      "압": 3526,
      "앖": 3527,
      "앗": 3528,
      "았": 3529,
      "앙": 3530,
      "앚": 3531,
      "앜": 3532,
      "앝": 3533,
      "앞": 3534,
      "앟": 3535,
      "애": 3536,
      "액": 3537,
      "앤": 3538,
      "앨": 3539,
      "앰": 3540,
      "앱": 3541,
      "앳": 3542,
      "앴": 3543,
      "앵": 3544,
      "야": 3545,
      "약": 3546,
      "얀": 3547,
      "얃": 3548,
      "얄": 3549,
      "얇": 3550,
      "얌": 3551,
      "얍": 3552,
      "얏": 3553,
      "얐": 3554,
      "양": 3555,
      "얒": 3556,
      "얔": 3557,
      "얕": 3558,
      "얖": 3559,
      "얗": 3560,
      "얘": 3561,
      "얙": 3562,
      "얜": 3563,
      "얨": 3564,
      "어": 3565,
      "억": 3566,
      "얶": 3567,
      "얷": 3568,
      "언": 3569,
      "얹": 3570,
      "얺": 3571,
      "얻": 3572,
      "얼": 3573,
      "얽": 3574,
      "엄": 3575,
      "업": 3576,
      "없": 3577,
      "엇": 3578,
      "었": 3579,
      "엉": 3580,
      "엊": 3581,
      "엌": 3582,
      "엎": 3583,
      "엏": 3584,
      "에": 3585,
      "엑": 3586,
      "엔": 3587,
      "엘": 3588,
      "엠": 3589,
      "엡": 3590,
      "엣": 3591,
      "엤": 3592,
      "엥": 3593,
      "엨": 3594,
      "엪": 3595,
      "여": 3596,
      "역": 3597,
      "엮": 3598,
      "연": 3599,
      "열": 3600,
      "엷": 3601,
      "염": 3602,
      "엽": 3603,
      "엾": 3604,
      "엿": 3605,
      "였": 3606,
      "영": 3607,
      "옄": 3608,
      "옅": 3609,
      "옆": 3610,
      "옇": 3611,
      "예": 3612,
      "옌": 3613,
      "옐": 3614,
      "옘": 3615,
      "옙": 3616,
      "옛": 3617,
      "옜": 3618,
      "오": 3619,
      "옥": 3620,
      "온": 3621,
      "옫": 3622,
      "올": 3623,
      "옭": 3624,
      "옮": 3625,
      "옯": 3626,
      "옰": 3627,
      "옳": 3628,
      "옴": 3629,
      "옵": 3630,
      "옶": 3631,
      "옷": 3632,
      "옹": 3633,
      "옺": 3634,
      "옻": 3635,
      "옼": 3636,
      "옿": 3637,
      "와": 3638,
      "왁": 3639,
      "완": 3640,
      "왈": 3641,
      "왐": 3642,
      "왑": 3643,
      "왓": 3644,
      "왔": 3645,
      "왕": 3646,
      "왘": 3647,
      "왛": 3648,
      "왜": 3649,
      "왝": 3650,
      "왠": 3651,
      "왤": 3652,
      "왱": 3653,
      "외": 3654,
      "왼": 3655,
      "욀": 3656,
      "욌": 3657,
      "욍": 3658,
      "요": 3659,
      "욕": 3660,
      "욘": 3661,
      "욜": 3662,
      "욤": 3663,
      "욥": 3664,
      "욧": 3665,
      "용": 3666,
      "욪": 3667,
      "욬": 3668,
      "우": 3669,
      "욱": 3670,
      "운": 3671,
      "욷": 3672,
      "울": 3673,
      "욹": 3674,
      "움": 3675,
      "웁": 3676,
      "웃": 3677,
      "웅": 3678,
      "웈": 3679,
      "워": 3680,
      "웍": 3681,
      "원": 3682,
      "월": 3683,
      "웛": 3684,
      "웜": 3685,
      "웟": 3686,
      "웠": 3687,
      "웡": 3688,
      "웤": 3689,
      "웨": 3690,
      "웩": 3691,
      "웬": 3692,
      "웰": 3693,
      "웸": 3694,
      "웹": 3695,
      "웽": 3696,
      "윀": 3697,
      "위": 3698,
      "윅": 3699,
      "윈": 3700,
      "윌": 3701,
      "윔": 3702,
      "윕": 3703,
      "윗": 3704,
      "윘": 3705,
      "윙": 3706,
      "유": 3707,
      "육": 3708,
      "윤": 3709,
      "율": 3710,
      "윰": 3711,
      "윳": 3712,
      "융": 3713,
      "윷": 3714,
      "으": 3715,
      "윽": 3716,
      "윾": 3717,
      "은": 3718,
      "읁": 3719,
      "읃": 3720,
      "을": 3721,
      "읅": 3722,
      "읆": 3723,
      "읇": 3724,
      "읉": 3725,
      "읊": 3726,
      "읋": 3727,
      "음": 3728,
      "읍": 3729,
      "읎": 3730,
      "읏": 3731,
      "응": 3732,
      "읔": 3733,
      "읕": 3734,
      "읖": 3735,
      "읗": 3736,
      "의": 3737,
      "읜": 3738,
      "읠": 3739,
      "읫": 3740,
      "읭": 3741,
      "이": 3742,
      "익": 3743,
      "읶": 3744,
      "인": 3745,
      "읹": 3746,
      "읺": 3747,
      "읻": 3748,
      "일": 3749,
      "읽": 3750,
      "읿": 3751,
      "잀": 3752,
      "잃": 3753,
      "임": 3754,
      "입": 3755,
      "잆": 3756,
      "잇": 3757,
      "있": 3758,
      "잉": 3759,
      "잊": 3760,
      "잋": 3761,
      "잌": 3762,
      "잍": 3763,
      "잎": 3764,
      "잏": 3765,
      "자": 3766,
      "작": 3767,
      "잔": 3768,
      "잖": 3769,
      "잗": 3770,
      "잘": 3771,
      "잚": 3772,
      "잟": 3773,
      "잠": 3774,
      "잡": 3775,
      "잣": 3776,
      "잤": 3777,
      "장": 3778,
      "잦": 3779,
      "잨": 3780,
      "잩": 3781,
      "잪": 3782,
      "잫": 3783,
      "재": 3784,
      "잭": 3785,
      "잰": 3786,
      "잴": 3787,
      "잼": 3788,
      "잽": 3789,
      "잿": 3790,
      "쟀": 3791,
      "쟁": 3792,
      "쟈": 3793,
      "쟉": 3794,
      "쟌": 3795,
      "쟎": 3796,
      "쟐": 3797,
      "쟙": 3798,
      "쟛": 3799,
      "쟜": 3800,
      "쟝": 3801,
      "쟞": 3802,
      "쟤": 3803,
      "쟨": 3804,
      "저": 3805,
      "적": 3806,
      "전": 3807,
      "젅": 3808,
      "젆": 3809,
      "젇": 3810,
      "절": 3811,
      "젊": 3812,
      "젋": 3813,
      "젏": 3814,
      "점": 3815,
      "접": 3816,
      "젓": 3817,
      "젔": 3818,
      "정": 3819,
      "젖": 3820,
      "젗": 3821,
      "젙": 3822,
      "젛": 3823,
      "제": 3824,
      "젝": 3825,
      "젠": 3826,
      "젤": 3827,
      "젬": 3828,
      "젭": 3829,
      "젯": 3830,
      "젰": 3831,
      "젱": 3832,
      "젴": 3833,
      "져": 3834,
      "젹": 3835,
      "젼": 3836,
      "젿": 3837,
      "졀": 3838,
      "졉": 3839,
      "졋": 3840,
      "졌": 3841,
      "졍": 3842,
      "졎": 3843,
      "졓": 3844,
      "졔": 3845,
      "졘": 3846,
      "조": 3847,
      "족": 3848,
      "존": 3849,
      "졷": 3850,
      "졸": 3851,
      "좀": 3852,
      "좁": 3853,
      "좃": 3854,
      "좄": 3855,
      "종": 3856,
      "좆": 3857,
      "좇": 3858,
      "좈": 3859,
      "좉": 3860,
      "좊": 3861,
      "좋": 3862,
      "좌": 3863,
      "좍": 3864,
      "좔": 3865,
      "좝": 3866,
      "좟": 3867,
      "좡": 3868,
      "좢": 3869,
      "좨": 3870,
      "죄": 3871,
      "죈": 3872,
      "죌": 3873,
      "죕": 3874,
      "죗": 3875,
      "죙": 3876,
      "죠": 3877,
      "죡": 3878,
      "죤": 3879,
      "죧": 3880,
      "죨": 3881,
      "죰": 3882,
      "죳": 3883,
      "죴": 3884,
      "죵": 3885,
      "죷": 3886,
      "죸": 3887,
      "죹": 3888,
      "죻": 3889,
      "주": 3890,
      "죽": 3891,
      "준": 3892,
      "줃": 3893,
      "줄": 3894,
      "줌": 3895,
      "줍": 3896,
      "줏": 3897,
      "중": 3898,
      "줒": 3899,
      "줗": 3900,
      "줘": 3901,
      "줙": 3902,
      "줜": 3903,
      "줟": 3904,
      "줠": 3905,
      "줫": 3906,
      "줬": 3907,
      "줭": 3908,
      "줮": 3909,
      "줱": 3910,
      "줴": 3911,
      "줸": 3912,
      "쥐": 3913,
      "쥑": 3914,
      "쥔": 3915,
      "쥘": 3916,
      "쥣": 3917,
      "쥤": 3918,
      "쥥": 3919,
      "쥬": 3920,
      "쥭": 3921,
      "쥰": 3922,
      "쥴": 3923,
      "쥼": 3924,
      "즁": 3925,
      "즈": 3926,
      "즉": 3927,
      "즌": 3928,
      "즐": 3929,
      "즘": 3930,
      "즙": 3931,
      "즛": 3932,
      "증": 3933,
      "즞": 3934,
      "즤": 3935,
      "즥": 3936,
      "즨": 3937,
      "즬": 3938,
      "즹": 3939,
      "지": 3940,
      "직": 3941,
      "진": 3942,
      "짆": 3943,
      "짇": 3944,
      "질": 3945,
      "짊": 3946,
      "짋": 3947,
      "짐": 3948,
      "집": 3949,
      "짒": 3950,
      "짓": 3951,
      "짔": 3952,
      "징": 3953,
      "짖": 3954,
      "짗": 3955,
      "짘": 3956,
      "짙": 3957,
      "짚": 3958,
      "짛": 3959,
      "짜": 3960,
      "짝": 3961,
      "짠": 3962,
      "짢": 3963,
      "짤": 3964,
      "짦": 3965,
      "짧": 3966,
      "짬": 3967,
      "짭": 3968,
      "짯": 3969,
      "짰": 3970,
      "짱": 3971,
      "짲": 3972,
      "짴": 3973,
      "째": 3974,
      "짹": 3975,
      "짼": 3976,
      "쨀": 3977,
      "쨈": 3978,
      "쨉": 3979,
      "쨋": 3980,
      "쨌": 3981,
      "쨍": 3982,
      "쨓": 3983,
      "쨔": 3984,
      "쨘": 3985,
      "쨩": 3986,
      "쨰": 3987,
      "쩌": 3988,
      "쩍": 3989,
      "쩐": 3990,
      "쩔": 3991,
      "쩜": 3992,
      "쩝": 3993,
      "쩟": 3994,
      "쩠": 3995,
      "쩡": 3996,
      "쩧": 3997,
      "쩨": 3998,
      "쪄": 3999,
      "쪅": 4000,
      "쪈": 4001,
      "쪌": 4002,
      "쪕": 4003,
      "쪘": 4004,
      "쪙": 4005,
      "쪼": 4006,
      "쪽": 4007,
      "쪾": 4008,
      "쫀": 4009,
      "쫄": 4010,
      "쫌": 4011,
      "쫍": 4012,
      "쫏": 4013,
      "쫐": 4014,
      "쫑": 4015,
      "쫒": 4016,
      "쫓": 4017,
      "쫗": 4018,
      "쫘": 4019,
      "쫙": 4020,
      "쫩": 4021,
      "쫭": 4022,
      "쬐": 4023,
      "쬬": 4024,
      "쬭": 4025,
      "쭈": 4026,
      "쭉": 4027,
      "쭌": 4028,
      "쭐": 4029,
      "쭘": 4030,
      "쭙": 4031,
      "쭛": 4032,
      "쭝": 4033,
      "쭤": 4034,
      "쭵": 4035,
      "쮜": 4036,
      "쮸": 4037,
      "쯍": 4038,
      "쯔": 4039,
      "쯕": 4040,
      "쯤": 4041,
      "쯥": 4042,
      "쯧": 4043,
      "쯩": 4044,
      "쯪": 4045,
      "쯫": 4046,
      "찌": 4047,
      "찍": 4048,
      "찎": 4049,
      "찐": 4050,
      "찔": 4051,
      "찜": 4052,
      "찝": 4053,
      "찟": 4054,
      "찡": 4055,
      "찢": 4056,
      "찣": 4057,
      "찧": 4058,
      "차": 4059,
      "착": 4060,
      "찬": 4061,
      "찮": 4062,
      "찰": 4063,
      "참": 4064,
      "찹": 4065,
      "찻": 4066,
      "찼": 4067,
      "창": 4068,
      "찾": 4069,
      "찿": 4070,
      "챃": 4071,
      "채": 4072,
      "책": 4073,
      "챈": 4074,
      "챌": 4075,
      "챔": 4076,
      "챕": 4077,
      "챗": 4078,
      "챘": 4079,
      "챙": 4080,
      "챠": 4081,
      "챡": 4082,
      "챤": 4083,
      "챦": 4084,
      "챨": 4085,
      "챵": 4086,
      "처": 4087,
      "척": 4088,
      "천": 4089,
      "철": 4090,
      "첨": 4091,
      "첩": 4092,
      "첫": 4093,
      "첬": 4094,
      "청": 4095,
      "첮": 4096,
      "체": 4097,
      "첵": 4098,
      "첸": 4099,
      "첼": 4100,
      "쳇": 4101,
      "쳉": 4102,
      "쳐": 4103,
      "쳑": 4104,
      "쳔": 4105,
      "쳘": 4106,
      "쳣": 4107,
      "쳤": 4108,
      "쳥": 4109,
      "쳫": 4110,
      "쳬": 4111,
      "초": 4112,
      "촉": 4113,
      "촌": 4114,
      "촐": 4115,
      "촘": 4116,
      "촙": 4117,
      "촛": 4118,
      "총": 4119,
      "촞": 4120,
      "촟": 4121,
      "촣": 4122,
      "촤": 4123,
      "촥": 4124,
      "촨": 4125,
      "촬": 4126,
      "촴": 4127,
      "촵": 4128,
      "촹": 4129,
      "쵀": 4130,
      "최": 4131,
      "쵝": 4132,
      "쵸": 4133,
      "쵼": 4134,
      "춋": 4135,
      "춍": 4136,
      "추": 4137,
      "축": 4138,
      "춘": 4139,
      "출": 4140,
      "춤": 4141,
      "춥": 4142,
      "춧": 4143,
      "충": 4144,
      "춰": 4145,
      "춴": 4146,
      "췃": 4147,
      "췄": 4148,
      "췌": 4149,
      "취": 4150,
      "췬": 4151,
      "츄": 4152,
      "츈": 4153,
      "츌": 4154,
      "츙": 4155,
      "츠": 4156,
      "측": 4157,
      "츤": 4158,
      "츨": 4159,
      "츰": 4160,
      "츳": 4161,
      "층": 4162,
      "츼": 4163,
      "칀": 4164,
      "치": 4165,
      "칙": 4166,
      "친": 4167,
      "칠": 4168,
      "칡": 4169,
      "침": 4170,
      "칩": 4171,
      "칫": 4172,
      "칬": 4173,
      "칭": 4174,
      "칮": 4175,
      "카": 4176,
      "칵": 4177,
      "칸": 4178,
      "칼": 4179,
      "캄": 4180,
      "캅": 4181,
      "캇": 4182,
      "캉": 4183,
      "캌": 4184,
      "캍": 4185,
      "캐": 4186,
      "캑": 4187,
      "캔": 4188,
      "캘": 4189,
      "캠": 4190,
      "캡": 4191,
      "캣": 4192,
      "캤": 4193,
      "캥": 4194,
      "캬": 4195,
      "캭": 4196,
      "컄": 4197,
      "커": 4198,
      "컥": 4199,
      "컨": 4200,
      "컫": 4201,
      "컬": 4202,
      "컴": 4203,
      "컵": 4204,
      "컷": 4205,
      "컸": 4206,
      "컹": 4207,
      "케": 4208,
      "켁": 4209,
      "켄": 4210,
      "켈": 4211,
      "켐": 4212,
      "켑": 4213,
      "켓": 4214,
      "켔": 4215,
      "켕": 4216,
      "켜": 4217,
      "켠": 4218,
      "켤": 4219,
      "켬": 4220,
      "켭": 4221,
      "켯": 4222,
      "켰": 4223,
      "켱": 4224,
      "켸": 4225,
      "코": 4226,
      "콕": 4227,
      "콘": 4228,
      "콜": 4229,
      "콤": 4230,
      "콥": 4231,
      "콧": 4232,
      "콩": 4233,
      "콰": 4234,
      "콱": 4235,
      "콴": 4236,
      "콸": 4237,
      "쾅": 4238,
      "쾈": 4239,
      "쾌": 4240,
      "쾍": 4241,
      "쾡": 4242,
      "쾨": 4243,
      "쾰": 4244,
      "쿄": 4245,
      "쿠": 4246,
      "쿡": 4247,
      "쿤": 4248,
      "쿨": 4249,
      "쿰": 4250,
      "쿱": 4251,
      "쿵": 4252,
      "쿸": 4253,
      "쿼": 4254,
      "퀀": 4255,
      "퀄": 4256,
      "퀘": 4257,
      "퀭": 4258,
      "퀴": 4259,
      "퀵": 4260,
      "퀸": 4261,
      "퀼": 4262,
      "큉": 4263,
      "큐": 4264,
      "큘": 4265,
      "크": 4266,
      "큭": 4267,
      "큰": 4268,
      "클": 4269,
      "큼": 4270,
      "큽": 4271,
      "큿": 4272,
      "킁": 4273,
      "킄": 4274,
      "킅": 4275,
      "킈": 4276,
      "키": 4277,
      "킥": 4278,
      "킨": 4279,
      "킬": 4280,
      "킴": 4281,
      "킵": 4282,
      "킷": 4283,
      "킹": 4284,
      "킼": 4285,
      "타": 4286,
      "탁": 4287,
      "탄": 4288,
      "탈": 4289,
      "탉": 4290,
      "탐": 4291,
      "탑": 4292,
      "탓": 4293,
      "탔": 4294,
      "탕": 4295,
      "태": 4296,
      "택": 4297,
      "탠": 4298,
      "탤": 4299,
      "탬": 4300,
      "탭": 4301,
      "탯": 4302,
      "탰": 4303,
      "탱": 4304,
      "탸": 4305,
      "탹": 4306,
      "터": 4307,
      "턱": 4308,
      "턴": 4309,
      "털": 4310,
      "텀": 4311,
      "텁": 4312,
      "텃": 4313,
      "텄": 4314,
      "텅": 4315,
      "텋": 4316,
      "테": 4317,
      "텍": 4318,
      "텐": 4319,
      "텔": 4320,
      "템": 4321,
      "텝": 4322,
      "텟": 4323,
      "텡": 4324,
      "텨": 4325,
      "텬": 4326,
      "텻": 4327,
      "텼": 4328,
      "톄": 4329,
      "톈": 4330,
      "토": 4331,
      "톡": 4332,
      "톤": 4333,
      "톨": 4334,
      "톰": 4335,
      "톱": 4336,
      "톳": 4337,
      "통": 4338,
      "톼": 4339,
      "퇄": 4340,
      "퇘": 4341,
      "퇫": 4342,
      "퇬": 4343,
      "퇴": 4344,
      "툇": 4345,
      "툐": 4346,
      "툥": 4347,
      "투": 4348,
      "툭": 4349,
      "툰": 4350,
      "툴": 4351,
      "툼": 4352,
      "툽": 4353,
      "퉁": 4354,
      "퉈": 4355,
      "퉛": 4356,
      "퉜": 4357,
      "퉤": 4358,
      "퉥": 4359,
      "퉷": 4360,
      "퉸": 4361,
      "튀": 4362,
      "튄": 4363,
      "튈": 4364,
      "튐": 4365,
      "튓": 4366,
      "튕": 4367,
      "튜": 4368,
      "튠": 4369,
      "튤": 4370,
      "튬": 4371,
      "튭": 4372,
      "트": 4373,
      "특": 4374,
      "튼": 4375,
      "튿": 4376,
      "틀": 4377,
      "틁": 4378,
      "틈": 4379,
      "틉": 4380,
      "틋": 4381,
      "틍": 4382,
      "틑": 4383,
      "틔": 4384,
      "티": 4385,
      "틱": 4386,
      "틴": 4387,
      "틸": 4388,
      "팀": 4389,
      "팁": 4390,
      "팃": 4391,
      "팅": 4392,
      "파": 4393,
      "팍": 4394,
      "팎": 4395,
      "판": 4396,
      "팔": 4397,
      "팜": 4398,
      "팝": 4399,
      "팟": 4400,
      "팠": 4401,
      "팡": 4402,
      "팤": 4403,
      "팥": 4404,
      "패": 4405,
      "팩": 4406,
      "팬": 4407,
      "팰": 4408,
      "팸": 4409,
      "팹": 4410,
      "팻": 4411,
      "팼": 4412,
      "팽": 4413,
      "퍀": 4414,
      "퍄": 4415,
      "퍅": 4416,
      "퍈": 4417,
      "퍌": 4418,
      "퍙": 4419,
      "퍠": 4420,
      "퍼": 4421,
      "퍽": 4422,
      "펀": 4423,
      "펄": 4424,
      "펌": 4425,
      "펍": 4426,
      "펏": 4427,
      "펐": 4428,
      "펑": 4429,
      "페": 4430,
      "펙": 4431,
      "펜": 4432,
      "펠": 4433,
      "펨": 4434,
      "펩": 4435,
      "펫": 4436,
      "펭": 4437,
      "펴": 4438,
      "편": 4439,
      "펼": 4440,
      "폄": 4441,
      "폇": 4442,
      "폈": 4443,
      "평": 4444,
      "폐": 4445,
      "폔": 4446,
      "포": 4447,
      "폭": 4448,
      "폰": 4449,
      "폴": 4450,
      "폼": 4451,
      "폽": 4452,
      "폿": 4453,
      "퐁": 4454,
      "퐈": 4455,
      "퐉": 4456,
      "퐐": 4457,
      "퐝": 4458,
      "푀": 4459,
      "표": 4460,
      "푠": 4461,
      "푯": 4462,
      "푱": 4463,
      "푸": 4464,
      "푹": 4465,
      "푼": 4466,
      "풀": 4467,
      "품": 4468,
      "풉": 4469,
      "풋": 4470,
      "풍": 4471,
      "풰": 4472,
      "퓌": 4473,
      "퓨": 4474,
      "퓰": 4475,
      "퓸": 4476,
      "퓽": 4477,
      "프": 4478,
      "픈": 4479,
      "플": 4480,
      "픔": 4481,
      "픕": 4482,
      "픙": 4483,
      "피": 4484,
      "픽": 4485,
      "핀": 4486,
      "필": 4487,
      "핌": 4488,
      "핍": 4489,
      "핏": 4490,
      "핑": 4491,
      "하": 4492,
      "학": 4493,
      "한": 4494,
      "핝": 4495,
      "핟": 4496,
      "할": 4497,
      "핡": 4498,
      "핣": 4499,
      "핥": 4500,
      "핧": 4501,
      "함": 4502,
      "합": 4503,
      "핫": 4504,
      "핬": 4505,
      "항": 4506,
      "핮": 4507,
      "핰": 4508,
      "핱": 4509,
      "핳": 4510,
      "해": 4511,
      "핵": 4512,
      "핸": 4513,
      "핻": 4514,
      "핼": 4515,
      "햄": 4516,
      "햅": 4517,
      "햇": 4518,
      "했": 4519,
      "행": 4520,
      "햊": 4521,
      "햌": 4522,
      "햏": 4523,
      "햐": 4524,
      "햑": 4525,
      "햔": 4526,
      "햘": 4527,
      "햝": 4528,
      "햠": 4529,
      "햡": 4530,
      "햤": 4531,
      "향": 4532,
      "햬": 4533,
      "햿": 4534,
      "헀": 4535,
      "허": 4536,
      "헉": 4537,
      "헌": 4538,
      "헐": 4539,
      "험": 4540,
      "헙": 4541,
      "헛": 4542,
      "헜": 4543,
      "헝": 4544,
      "헠": 4545,
      "헣": 4546,
      "헤": 4547,
      "헥": 4548,
      "헨": 4549,
      "헬": 4550,
      "헴": 4551,
      "헵": 4552,
      "헷": 4553,
      "헸": 4554,
      "헹": 4555,
      "헿": 4556,
      "혀": 4557,
      "혁": 4558,
      "현": 4559,
      "혈": 4560,
      "혐": 4561,
      "협": 4562,
      "혓": 4563,
      "혔": 4564,
      "형": 4565,
      "혜": 4566,
      "혠": 4567,
      "호": 4568,
      "혹": 4569,
      "혼": 4570,
      "홀": 4571,
      "홈": 4572,
      "홉": 4573,
      "홋": 4574,
      "홍": 4575,
      "홑": 4576,
      "홓": 4577,
      "화": 4578,
      "확": 4579,
      "환": 4580,
      "활": 4581,
      "홤": 4582,
      "홥": 4583,
      "홧": 4584,
      "황": 4585,
      "홰": 4586,
      "홱": 4587,
      "횃": 4588,
      "회": 4589,
      "획": 4590,
      "횐": 4591,
      "횔": 4592,
      "횟": 4593,
      "횡": 4594,
      "효": 4595,
      "횬": 4596,
      "횽": 4597,
      "후": 4598,
      "훅": 4599,
      "훈": 4600,
      "훌": 4601,
      "훍": 4602,
      "훑": 4603,
      "훓": 4604,
      "훔": 4605,
      "훕": 4606,
      "훗": 4607,
      "훙": 4608,
      "훠": 4609,
      "훤": 4610,
      "훨": 4611,
      "훼": 4612,
      "훽": 4613,
      "휀": 4614,
      "휄": 4615,
      "휏": 4616,
      "휑": 4617,
      "휘": 4618,
      "휙": 4619,
      "휜": 4620,
      "휠": 4621,
      "휩": 4622,
      "휭": 4623,
      "휴": 4624,
      "휸": 4625,
      "휼": 4626,
      "흄": 4627,
      "흉": 4628,
      "흐": 4629,
      "흑": 4630,
      "흔": 4631,
      "흘": 4632,
      "흙": 4633,
      "흠": 4634,
      "흡": 4635,
      "흣": 4636,
      "흥": 4637,
      "흩": 4638,
      "희": 4639,
      "흭": 4640,
      "흰": 4641,
      "흴": 4642,
      "히": 4643,
      "힉": 4644,
      "힌": 4645,
      "힐": 4646,
      "힘": 4647,
      "힙": 4648,
      "힛": 4649,
      "힝": 4650,
      "힣": 4651,
      "金": 4652,
      "勞": 4653,
      "盧": 4654,
      "老": 4655,
      "樂": 4656,
      "不": 4657,
      "兩": 4658,
      "女": 4659,
      "年": 4660,
      "聯": 4661,
      "遼": 4662,
      "龍": 4663,
      "流": 4664,
      "率": 4665,
      "利": 4666,
      "李": 4667,
      "理": 4668,
      "臨": 4669,
      "立": 4670,
      "狀": 4671,
      "宅": 4672,
      "️": 4673,
      "＂": 4674,
      "％": 4675,
      "＆": 4676,
      "＇": 4677,
      "（": 4678,
      "）": 4679,
      "＋": 4680,
      "，": 4681,
      "－": 4682,
      "：": 4683,
      "＜": 4684,
      "＝": 4685,
      "＞": 4686,
      "？": 4687,
      "＼": 4688,
      "］": 4689,
      "ｍ": 4690,
      "｜": 4691,
      "～": 4692,
      "｢": 4693,
      "｣": 4694,
      "･": 4695,
      "🆘": 4696,
      "🇨": 4697,
      "🇭": 4698,
      "🇯": 4699,
      "🇰": 4700,
      "🇳": 4701,
      "🇵": 4702,
      "🇷": 4703,
      "🇸": 4704,
      "🇹": 4705,
      "🇺": 4706,
      "🇼": 4707,
      "🌈": 4708,
      "🌋": 4709,
      "🌕": 4710,
      "🌙": 4711,
      "🌛": 4712,
      "🌜": 4713,
      "🌟": 4714,
      "🌩": 4715,
      "🌱": 4716,
      "🌶": 4717,
      "🌷": 4718,
      "🌸": 4719,
      "🌹": 4720,
      "🌺": 4721,
      "🌻": 4722,
      "🌼": 4723,
      "🌿": 4724,
      "🍀": 4725,
      "🍁": 4726,
      "🍆": 4727,
      "🍉": 4728,
      "🍊": 4729,
      "🍌": 4730,
      "🍎": 4731,
      "🍏": 4732,
      "🍑": 4733,
      "🍒": 4734,
      "🍓": 4735,
      "🍞": 4736,
      "🍭": 4737,
      "🍾": 4738,
      "🎀": 4739,
      "🎁": 4740,
      "🎃": 4741,
      "🎆": 4742,
      "🎈": 4743,
      "🎉": 4744,
      "🎊": 4745,
      "🎗": 4746,
      "🎤": 4747,
      "🎯": 4748,
      "🎵": 4749,
      "🎶": 4750,
      "🎺": 4751,
      "🏃": 4752,
      "🏅": 4753,
      "🏻": 4754,
      "🏼": 4755,
      "🏽": 4756,
      "🏾": 4757,
      "🏿": 4758,
      "🐀": 4759,
      "🐁": 4760,
      "🐂": 4761,
      "🐅": 4762,
      "🐆": 4763,
      "🐈": 4764,
      "🐉": 4765,
      "🐍": 4766,
      "🐎": 4767,
      "🐏": 4768,
      "🐑": 4769,
      "🐒": 4770,
      "🐓": 4771,
      "🐔": 4772,
      "🐕": 4773,
      "🐖": 4774,
      "🐗": 4775,
      "🐙": 4776,
      "🐛": 4777,
      "🐣": 4778,
      "🐤": 4779,
      "🐥": 4780,
      "🐦": 4781,
      "🐧": 4782,
      "🐨": 4783,
      "🐩": 4784,
      "🐭": 4785,
      "🐮": 4786,
      "🐯": 4787,
      "🐰": 4788,
      "🐱": 4789,
      "🐴": 4790,
      "🐵": 4791,
      "🐶": 4792,
      "🐷": 4793,
      "🐸": 4794,
      "🐺": 4795,
      "🐽": 4796,
      "🐾": 4797,
      "👀": 4798,
      "👁": 4799,
      "👄": 4800,
      "👅": 4801,
      "👆": 4802,
      "👇": 4803,
      "👈": 4804,
      "👉": 4805,
      "👊": 4806,
      "👋": 4807,
      "👌": 4808,
      "👍": 4809,
      "👎": 4810,
      "👏": 4811,
      "👑": 4812,
      "👞": 4813,
      "👟": 4814,
      "👣": 4815,
      "👤": 4816,
      "👥": 4817,
      "👦": 4818,
      "👧": 4819,
      "👨": 4820,
      "👩": 4821,
      "👴": 4822,
      "👶": 4823,
      "👹": 4824,
      "👺": 4825,
      "👻": 4826,
      "👽": 4827,
      "👿": 4828,
      "💀": 4829,
      "💃": 4830,
      "💋": 4831,
      "💎": 4832,
      "💐": 4833,
      "💓": 4834,
      "💔": 4835,
      "💕": 4836,
      "💖": 4837,
      "💗": 4838,
      "💘": 4839,
      "💙": 4840,
      "💚": 4841,
      "💛": 4842,
      "💜": 4843,
      "💝": 4844,
      "💞": 4845,
      "💟": 4846,
      "💢": 4847,
      "💣": 4848,
      "💤": 4849,
      "💥": 4850,
      "💦": 4851,
      "💨": 4852,
      "💩": 4853,
      "💪": 4854,
      "💫": 4855,
      "💯": 4856,
      "💰": 4857,
      "💸": 4858,
      "📌": 4859,
      "📛": 4860,
      "📢": 4861,
      "📣": 4862,
      "🔊": 4863,
      "🔔": 4864,
      "🔖": 4865,
      "🔞": 4866,
      "🔥": 4867,
      "🔨": 4868,
      "🔪": 4869,
      "🔫": 4870,
      "🔮": 4871,
      "🔴": 4872,
      "🔵": 4873,
      "🔶": 4874,
      "🔸": 4875,
      "🔹": 4876,
      "🔺": 4877,
      "🕊": 4878,
      "🕖": 4879,
      "🕯": 4880,
      "🕺": 4881,
      "🖐": 4882,
      "🖕": 4883,
      "🖤": 4884,
      "🗡": 4885,
      "🗣": 4886,
      "😀": 4887,
      "😁": 4888,
      "😂": 4889,
      "😃": 4890,
      "😄": 4891,
      "😅": 4892,
      "😆": 4893,
      "😇": 4894,
      "😈": 4895,
      "😉": 4896,
      "😊": 4897,
      "😋": 4898,
      "😌": 4899,
      "😍": 4900,
      "😎": 4901,
      "😏": 4902,
      "😐": 4903,
      "😑": 4904,
      "😒": 4905,
      "😓": 4906,
      "😔": 4907,
      "😕": 4908,
      "😖": 4909,
      "😗": 4910,
      "😘": 4911,
      "😙": 4912,
      "😚": 4913,
      "😛": 4914,
      "😜": 4915,
      "😝": 4916,
      "😞": 4917,
      "😠": 4918,
      "😡": 4919,
      "😢": 4920,
      "😣": 4921,
      "😤": 4922,
      "😥": 4923,
      "😧": 4924,
      "😨": 4925,
      "😩": 4926,
      "😪": 4927,
      "😫": 4928,
      "😬": 4929,
      "😭": 4930,
      "😮": 4931,
      "😰": 4932,
      "😱": 4933,
      "😲": 4934,
      "😳": 4935,
      "😴": 4936,
      "😵": 4937,
      "😷": 4938,
      "😻": 4939,
      "🙂": 4940,
      "🙃": 4941,
      "🙄": 4942,
      "🙅": 4943,
      "🙆": 4944,
      "🙇": 4945,
      "🙈": 4946,
      "🙉": 4947,
      "🙊": 4948,
      "🙋": 4949,
      "🙌": 4950,
      "🙏": 4951,
      "🚀": 4952,
      "🚢": 4953,
      "🚨": 4954,
      "🚩": 4955,
      "🚫": 4956,
      "🚴": 4957,
      "🛑": 4958,
      "🤐": 4959,
      "🤑": 4960,
      "🤓": 4961,
      "🤔": 4962,
      "🤕": 4963,
      "🤗": 4964,
      "🤛": 4965,
      "🤡": 4966,
      "🤢": 4967,
      "🤣": 4968,
      "🤤": 4969,
      "🤦": 4970,
      "🤧": 4971,
      "🤨": 4972,
      "🤩": 4973,
      "🤪": 4974,
      "🤫": 4975,
      "🤬": 4976,
      "🤭": 4977,
      "🤮": 4978,
      "🤯": 4979,
      "🤴": 4980,
      "🤷": 4981,
      "🥁": 4982,
      "🥇": 4983,
      "🥊": 4984,
      "🥕": 4985,
      "🥰": 4986,
      "🥳": 4987,
      "🥵": 4988,
      "🥶": 4989,
      "🥺": 4990,
      "🦀": 4991,
      "🦅": 4992,
      "🦇": 4993,
      "🦉": 4994,
      "🦊": 4995,
      "🦍": 4996,
      "🦜": 4997,
      "🦠": 4998,
      "🦴": 4999,
      "🦶": 5000,
      "🧟": 5001,
      "🧡": 5002,
      "🧢": 5003,
      "🩸": 5004,
      "##현": 5005,
      "##아": 5006,
      "##같": 5007,
      "##을": 5008,
      "##꺼": 5009,
      "##요": 5010,
      "##하": 5011,
      "##2": 5012,
      "##6": 5013,
      "##1": 5014,
      "##계": 5015,
      "##로": 5016,
      "##새": 5017,
      "##닮": 5018,
      "##은": 5019,
      "##주": 5020,
      "##댕": 5021,
      "##이": 5022,
      "##정": 5023,
      "##역": 5024,
      "##5": 5025,
      "##번": 5026,
      "##출": 5027,
      "##구": 5028,
      "##를": 5029,
      "##무": 5030,
      "##미": 5031,
      "##개": 5032,
      "##해": 5033,
      "##지": 5034,
      "##는": 5035,
      "##백": 5036,
      "##일": 5037,
      "##선": 5038,
      "##파": 5039,
      "##가": 5040,
      "##된": 5041,
      "##다": 5042,
      "##어": 5043,
      "##셨": 5044,
      "##까": 5045,
      "##통": 5046,
      "##9": 5047,
      "##8": 5048,
      "##년": 5049,
      "##경": 5050,
      "##에": 5051,
      "##용": 5052,
      "##되": 5053,
      "##게": 5054,
      "##래": 5055,
      "##기": 5056,
      "##억": 5057,
      "##될": 5058,
      "##야": 5059,
      "##됏": 5060,
      "##랑": 5061,
      "##한": 5062,
      "##적": 5063,
      "##질": 5064,
      "##것": 5065,
      "##들": 5066,
      "##도": 5067,
      "##첩": 5068,
      "##단": 5069,
      "##체": 5070,
      "##니": 5071,
      "##고": 5072,
      "##속": 5073,
      "##서": 5074,
      "##쳐": 5075,
      "##놓": 5076,
      "##데": 5077,
      "##션": 5078,
      "##만": 5079,
      "##0": 5080,
      "##팔": 5081,
      "##있": 5082,
      "##좌": 5083,
      "##걸": 5084,
      "##차": 5085,
      "##좀": 5086,
      "##조": 5087,
      "##할": 5088,
      "##겂": 5089,
      "##딸": 5090,
      "##시": 5091,
      "##키": 5092,
      "##면": 5093,
      "##먹": 5094,
      "##라": 5095,
      "##인": 5096,
      "##리": 5097,
      "##나": 5098,
      "##삼": 5099,
      "##권": 5100,
      "##부": 5101,
      "##겠": 5102,
      "##따": 5103,
      "##밥": 5104,
      "##의": 5105,
      "##돼": 5106,
      "##살": 5107,
      "##바": 5108,
      "##란": 5109,
      "##삐": 5110,
      "##ㅋ": 5111,
      "##방": 5112,
      "##추": 5113,
      "##천": 5114,
      "##너": 5115,
      "##희": 5116,
      "##빨": 5117,
      "##쪽": 5118,
      "##사": 5119,
      "##람": 5120,
      "##k": 5121,
      "##t": 5122,
      "##쓰": 5123,
      "##수": 5124,
      "##누": 5125,
      "##악": 5126,
      "##원": 5127,
      "##스": 5128,
      "##벤": 5129,
      "##벌": 5130,
      "##길": 5131,
      "##산": 5132,
      "##빵": 5133,
      "##거": 5134,
      "##흔": 5135,
      "##려": 5136,
      "##족": 5137,
      "##과": 5138,
      "##상": 5139,
      "##관": 5140,
      "##없": 5141,
      "##문": 5142,
      "##실": 5143,
      "##복": 5144,
      "##으": 5145,
      "##슬": 5146,
      "##호": 5147,
      "##령": 5148,
      "##화": 5149,
      "##켰": 5150,
      "##전": 5151,
      "##술": 5152,
      "##루": 5153,
      "##져": 5154,
      "##줄": 5155,
      "##ㅅ": 5156,
      "##품": 5157,
      "##창": 5158,
      "##🐕": 5159,
      "##🐷": 5160,
      "##싶": 5161,
      "##간": 5162,
      "##달": 5163,
      "##린": 5164,
      "##냐": 5165,
      "##진": 5166,
      "##자": 5167,
      "##망": 5168,
      "##믿": 5169,
      "##않": 5170,
      "##았": 5171,
      "##효": 5172,
      "##율": 5173,
      "##때": 5174,
      "##남": 5175,
      "##책": 5176,
      "##특": 5177,
      "##처": 5178,
      "##릉": 5179,
      "##똥": 5180,
      "##대": 5181,
      "##함": 5182,
      "##네": 5183,
      "##트": 5184,
      "##온": 5185,
      "##께": 5186,
      "##보": 5187,
      "##폐": 5188,
      "##세": 5189,
      "##력": 5190,
      "##법": 5191,
      "##취": 5192,
      "##득": 5193,
      "##건": 5194,
      "##었": 5195,
      "##므": 5196,
      "##볼": 5197,
      "##곳": 5198,
      "##코": 5199,
      "##b": 5200,
      "##y": 5201,
      "##봄": 5202,
      "##글": 5203,
      "##쇼": 5204,
      "##핑": 5205,
      "##몰": 5206,
      "##내": 5207,
      "##소": 5208,
      "##장": 5209,
      "##히": 5210,
      "##꼴": 5211,
      "##재": 5212,
      "##중": 5213,
      "##평": 5214,
      "##론": 5215,
      "##흡": 5216,
      "##푼": 5217,
      "##왔": 5218,
      "##렇": 5219,
      "##던": 5220,
      "##설": 5221,
      "##했": 5222,
      "##줌": 5223,
      "##마": 5224,
      "##위": 5225,
      "##짜": 5226,
      "##뉴": 5227,
      "##높": 5228,
      "##음": 5229,
      "##막": 5230,
      "##식": 5231,
      "##민": 5232,
      "##증": 5233,
      "##랭": 5234,
      "##엽": 5235,
      "##숙": 5236,
      "##청": 5237,
      "##신": 5238,
      "##규": 5239,
      "##놈": 5240,
      "##헌": 5241,
      "##병": 5242,
      "##업": 5243,
      "##치": 5244,
      "##욕": 5245,
      "##흥": 5246,
      "##학": 5247,
      "##터": 5248,
      "##e": 5249,
      "##i": 5250,
      "##m": 5251,
      "##o": 5252,
      "##f": 5253,
      "##혹": 5254,
      "##압": 5255,
      "##종": 5256,
      "##국": 5257,
      "##른": 5258,
      "##제": 5259,
      "##분": 5260,
      "##직": 5261,
      "##동": 5262,
      "##료": 5263,
      "##틀": 5264,
      "##슨": 5265,
      "##죄": 5266,
      "##프": 5267,
      "##든": 5268,
      "##넘": 5269,
      "##겨": 5270,
      "##졌": 5271,
      "##탁": 5272,
      "##찬": 5273,
      "##패": 5274,
      "##탄": 5275,
      "##핵": 5276,
      "##레": 5277,
      "##결": 5278,
      "##행": 5279,
      "##회": 5280,
      "##티": 5281,
      "##돌": 5282,
      "##그": 5283,
      "##와": 5284,
      "##쉬": 5285,
      "##운": 5286,
      "##노": 5287,
      "##승": 5288,
      "##피": 5289,
      "##녀": 5290,
      "##디": 5291,
      "##유": 5292,
      "##물": 5293,
      "##뿐": 5294,
      "##농": 5295,
      "##우": 5296,
      "##림": 5297,
      "##픽": 5298,
      "##임": 5299,
      "##당": 5300,
      "##님": 5301,
      "##랄": 5302,
      "##염": 5303,
      "##떨": 5304,
      "##앉": 5305,
      "##메": 5306,
      "##논": 5307,
      "##🚨": 5308,
      "##🐰": 5309,
      "##감": 5310,
      "##잔": 5311,
      "##확": 5312,
      "##뭐": 5313,
      "##혀": 5314,
      "##느": 5315,
      "##저": 5316,
      "##런": 5317,
      "##귀": 5318,
      "##킬": 5319,
      "##워": 5320,
      "##😘": 5321,
      "##공": 5322,
      "##쌍": 5323,
      "##찌": 5324,
      "##럴": 5325,
      "##독": 5326,
      "##타": 5327,
      "##r": 5328,
      "##p": 5329,
      "##c": 5330,
      "##성": 5331,
      "##뀌": 5332,
      "##생": 5333,
      "##팀": 5334,
      "##난": 5335,
      "##드": 5336,
      "##러": 5337,
      "##댓": 5338,
      "##변": 5339,
      "##울": 5340,
      "##교": 5341,
      "##듣": 5342,
      "##꾼": 5343,
      "##죠": 5344,
      "##약": 5345,
      "##듵": 5346,
      "##빠": 5347,
      "##열": 5348,
      "##버": 5349,
      "##철": 5350,
      "##오": 5351,
      "##4": 5352,
      "##여": 5353,
      "##명": 5354,
      "##ㅎ": 5355,
      "##크": 5356,
      "##안": 5357,
      "##층": 5358,
      "##갈": 5359,
      "##튼": 5360,
      "##색": 5361,
      "##양": 5362,
      "##카": 5363,
      "##북": 5364,
      "##본": 5365,
      "##닭": 5366,
      "##밝": 5367,
      "##외": 5368,
      "##됴": 5369,
      "##랴": 5370,
      "##형": 5371,
      "##작": 5372,
      "##예": 5373,
      "##담": 5374,
      "##ㄷ": 5375,
      "##롤": 5376,
      "##강": 5377,
      "##금": 5378,
      "##받": 5379,
      "##격": 5380,
      "##표": 5381,
      "##영": 5382,
      "##링": 5383,
      "##발": 5384,
      "##합": 5385,
      "##침": 5386,
      "##낼": 5387,
      "##즈": 5388,
      "##협": 5389,
      "##w": 5390,
      "##a": 5391,
      "##급": 5392,
      "##르": 5393,
      "##못": 5394,
      "##더": 5395,
      "##죽": 5396,
      "##쒀": 5397,
      "##항": 5398,
      "##편": 5399,
      "##n": 5400,
      "##깨": 5401,
      "##읽": 5402,
      "##봤": 5403,
      "##맞": 5404,
      "##춤": 5405,
      "##말": 5406,
      "##또": 5407,
      "##꾸": 5408,
      "##착": 5409,
      "##각": 5410,
      "##목": 5411,
      "##록": 5412,
      "##준": 5413,
      "##집": 5414,
      "##O": 5415,
      "##ㄱ": 5416,
      "##택": 5417,
      "##엔": 5418,
      "##찰": 5419,
      "##혁": 5420,
      "##셔": 5421,
      "##듯": 5422,
      "##l": 5423,
      "##v": 5424,
      "##폔": 5425,
      "##덤": 5426,
      "##켜": 5427,
      "##촉": 5428,
      "##름": 5429,
      "##박": 5430,
      "##쫒": 5431,
      "##7": 5432,
      "##d": 5433,
      "##춰": 5434,
      "##많": 5435,
      "##판": 5436,
      "##검": 5437,
      "##케": 5438,
      "##팅": 5439,
      "##껀": 5440,
      "##입": 5441,
      "##융": 5442,
      "##연": 5443,
      "##비": 5444,
      "##배": 5445,
      "##꼈": 5446,
      "##꺵": 5447,
      "##ㅇ": 5448,
      "##불": 5449,
      "##점": 5450,
      "##3": 5451,
      "##심": 5452,
      "##갚": 5453,
      "##돈": 5454,
      "##닌": 5455,
      "##갱": 5456,
      "##토": 5457,
      "##슈": 5458,
      "##쩔": 5459,
      "##존": 5460,
      "##탈": 5461,
      "##섹": 5462,
      "##극": 5463,
      "##짝": 5464,
      "##태": 5465,
      "##였": 5466,
      "##베": 5467,
      "##륵": 5468,
      "##럼": 5469,
      "##액": 5470,
      "##밍": 5471,
      "##완": 5472,
      "##값": 5473,
      "##두": 5474,
      "##절": 5475,
      "##섞": 5476,
      "##K": 5477,
      "##쭘": 5478,
      "##싼": 5479,
      "##답": 5480,
      "##슷": 5481,
      "##혼": 5482,
      "##며": 5483,
      "##석": 5484,
      "##포": 5485,
      "##써": 5486,
      "##븅": 5487,
      "##낄": 5488,
      "##킨": 5489,
      "##썅": 5490,
      "##s": 5491,
      "##탕": 5492,
      "##끓": 5493,
      "##룰": 5494,
      "##잖": 5495,
      "##모": 5496,
      "##쑈": 5497,
      "##짓": 5498,
      "##충": 5499,
      "##놔": 5500,
      "##군": 5501,
      "##왜": 5502,
      "##칙": 5503,
      "##최": 5504,
      "##획": 5505,
      "##등": 5506,
      "##엄": 5507,
      "##럭": 5508,
      "##힘": 5509,
      "##싸": 5510,
      "##움": 5511,
      "##땐": 5512,
      "##릇": 5513,
      "##폭": 5514,
      "##곤": 5515,
      "##풀": 5516,
      "##섬": 5517,
      "##댜": 5518,
      "##겁": 5519,
      "##😔": 5520,
      "##월": 5521,
      "##u": 5522,
      "##ㅈ": 5523,
      "##촌": 5524,
      "##렆": 5525,
      "##환": 5526,
      "##몽": 5527,
      "##컷": 5528,
      "##댈": 5529,
      "##떳": 5530,
      "##뎌": 5531,
      "##엿": 5532,
      "##겡": 5533,
      "##🐶": 5534,
      "##푸": 5535,
      "##덜": 5536,
      "##접": 5537,
      "##갑": 5538,
      "##ㅊ": 5539,
      "##척": 5540,
      "##🔴": 5541,
      "##툭": 5542,
      "##튀": 5543,
      "##애": 5544,
      "##곶": 5545,
      "##잡": 5546,
      "##혜": 5547,
      "##쑤": 5548,
      "##X": 5549,
      "##매": 5550,
      "##끼": 5551,
      "##육": 5552,
      "##송": 5553,
      "##웃": 5554,
      "##E": 5555,
      "##B": 5556,
      "##별": 5557,
      "##풍": 5558,
      "##듥": 5559,
      "##활": 5560,
      "##늠": 5561,
      "##떠": 5562,
      "##씨": 5563,
      "##끌": 5564,
      "##햇": 5565,
      "##h": 5566,
      "##J": 5567,
      "##−": 5568,
      "##얗": 5569,
      "##샌": 5570,
      "##총": 5571,
      "##응": 5572,
      "##징": 5573,
      "##둘": 5574,
      "##필": 5575,
      "##끈": 5576,
      "##찾": 5577,
      "##껏": 5578,
      "##틸": 5579,
      "##첨": 5580,
      "##👏": 5581,
      "##ㅉ": 5582,
      "##텐": 5583,
      "##셜": 5584,
      "##떻": 5585,
      "##ㅂ": 5586,
      "##q": 5587,
      "##땅": 5588,
      "##싫": 5589,
      "##후": 5590,
      "##테": 5591,
      "##겼": 5592,
      "##뒷": 5593,
      "##턴": 5594,
      "##잭": 5595,
      "##련": 5596,
      "##꺄": 5597,
      "##밎": 5598,
      "##헛": 5599,
      "##씩": 5600,
      "##얼": 5601,
      "##굴": 5602,
      "##뽑": 5603,
      "##투": 5604,
      "##쫙": 5605,
      "##뜨": 5606,
      "##릴": 5607,
      "##념": 5608,
      "##띠": 5609,
      "##찍": 5610,
      "##립": 5611,
      "##😠": 5612,
      "##채": 5613,
      "##놨": 5614,
      "##듬": 5615,
      "##알": 5616,
      "##향": 5617,
      "##펙": 5618,
      "##쿼": 5619,
      "##놀": 5620,
      "##엠": 5621,
      "##찔": 5622,
      "##페": 5623,
      "##왕": 5624,
      "##롱": 5625,
      "##몿": 5626,
      "##얘": 5627,
      "##쁜": 5628,
      "##욱": 5629,
      "##밟": 5630,
      "##잇": 5631,
      "##💨": 5632,
      "##퀴": 5633,
      "##먼": 5634,
      "##황": 5635,
      "##램": 5636,
      "##F": 5637,
      "##깐": 5638,
      "##냥": 5639,
      "##날": 5640,
      "##큼": 5641,
      "##롭": 5642,
      "##퓨": 5643,
      "##찮": 5644,
      "##락": 5645,
      "##순": 5646,
      "##센": 5647,
      "##익": 5648,
      "##낸": 5649,
      "##붕": 5650,
      "##렸": 5651,
      "##샠": 5652,
      "##숨": 5653,
      "##끄": 5654,
      "##윤": 5655,
      "##탐": 5656,
      "##긴": 5657,
      "##꽃": 5658,
      "##🎉": 5659,
      "##😭": 5660,
      "##좆": 5661,
      "##귝": 5662,
      "##놧": 5663,
      "##밀": 5664,
      "##ㄹ": 5665,
      "##닫": 5666,
      "##혈": 5667,
      "##렁": 5668,
      "##눈": 5669,
      "##흘": 5670,
      "##겸": 5671,
      "##됐": 5672,
      "##습": 5673,
      "##쏘": 5674,
      "##둬": 5675,
      "##둔": 5676,
      "##참": 5677,
      "##균": 5678,
      "##돠": 5679,
      "##낙": 5680,
      "##퀘": 5681,
      "##짱": 5682,
      "##플": 5683,
      "##믄": 5684,
      "##깜": 5685,
      "##쿠": 5686,
      "##겧": 5687,
      "##골": 5688,
      "##잣": 5689,
      "##블": 5690,
      "##컥": 5691,
      "##쩌": 5692,
      "##궈": 5693,
      "##옥": 5694,
      "##앞": 5695,
      "##줬": 5696,
      "##좋": 5697,
      "##친": 5698,
      "##웨": 5699,
      "##닝": 5700,
      "##쏟": 5701,
      "##퍼": 5702,
      "##낳": 5703,
      "##짤": 5704,
      "##뚱": 5705,
      "##삿": 5706,
      "##땡": 5707,
      "##뇌": 5708,
      "##멋": 5709,
      "##걷": 5710,
      "##츠": 5711,
      "##잘": 5712,
      "##얻": 5713,
      "##험": 5714,
      "##둥": 5715,
      "##딩": 5716,
      "##갔": 5717,
      "##▷": 5718,
      "##올": 5719,
      "##∼": 5720,
      "##랫": 5721,
      "##홈": 5722,
      "##폴": 5723,
      "##몇": 5724,
      "##반": 5725,
      "##닙": 5726,
      "##즌": 5727,
      "##언": 5728,
      "##좁": 5729,
      "##견": 5730,
      "##넼": 5731,
      "##쿨": 5732,
      "##암": 5733,
      "##혓": 5734,
      "##툰": 5735,
      "##셓": 5736,
      "##즁": 5737,
      "##끔": 5738,
      "##랍": 5739,
      "##쿡": 5740,
      "##쒸": 5741,
      "##괴": 5742,
      "##쉽": 5743,
      "##허": 5744,
      "##멍": 5745,
      "##쓸": 5746,
      "##났": 5747,
      "##류": 5748,
      "##맙": 5749,
      "##샘": 5750,
      "##덕": 5751,
      "##범": 5752,
      "##x": 5753,
      "##갭": 5754,
      "##멘": 5755,
      "##꼬": 5756,
      "##십": 5757,
      "##앰": 5758,
      "##퓰": 5759,
      "##믈": 5760,
      "##광": 5761,
      "##빤": 5762,
      "##쓴": 5763,
      "##브": 5764,
      "##랜": 5765,
      "##펜": 5766,
      "##근": 5767,
      "##횡": 5768,
      "##뒤": 5769,
      "##딱": 5770,
      "##뭔": 5771,
      "##랬": 5772,
      "##갖": 5773,
      "##럽": 5774,
      "##옴": 5775,
      "##털": 5776,
      "##삶": 5777,
      "##샡": 5778,
      "##곁": 5779,
      "##🎗": 5780,
      "##쟁": 5781,
      "##괘": 5782,
      "##봐": 5783,
      "##머": 5784,
      "##띄": 5785,
      "##끊": 5786,
      "##떼": 5787,
      "##멈": 5788,
      "##벨": 5789,
      "##벳": 5790,
      "##앙": 5791,
      "##겹": 5792,
      "##손": 5793,
      "##낭": 5794,
      "##즉": 5795,
      "##겟": 5796,
      "##빈": 5797,
      "##봇": 5798,
      "##켓": 5799,
      "##쏴": 5800,
      "##량": 5801,
      "##훈": 5802,
      "##셧": 5803,
      "##쁘": 5804,
      "##커": 5805,
      "##C": 5806,
      "##묵": 5807,
      "##쳤": 5808,
      "##넣": 5809,
      "##돤": 5810,
      "##봉": 5811,
      "##줘": 5812,
      "##맛": 5813,
      "##넬": 5814,
      "##닿": 5815,
      "##닥": 5816,
      "##초": 5817,
      "##😂": 5818,
      "##뇨": 5819,
      "##략": 5820,
      "##빌": 5821,
      "##뻔": 5822,
      "##맘": 5823,
      "##젠": 5824,
      "##ㅍ": 5825,
      "##쇄": 5826,
      "##능": 5827,
      "##탓": 5828,
      "##딜": 5829,
      "##힌": 5830,
      "##힐": 5831,
      "##퍽": 5832,
      "##A": 5833,
      "##I": 5834,
      "##됬": 5835,
      "##ㅃ": 5836,
      "##멸": 5837,
      "##귈": 5838,
      "##T": 5839,
      "##템": 5840,
      "##갓": 5841,
      "##됫": 5842,
      "##L": 5843,
      "##빙": 5844,
      "##냈": 5845,
      "##ㄴ": 5846,
      "##ㄲ": 5847,
      "##g": 5848,
      "##붙": 5849,
      "##릭": 5850,
      "##쪄": 5851,
      "##례": 5852,
      "##😡": 5853,
      "##낌": 5854,
      "##텔": 5855,
      "##툥": 5856,
      "##혐": 5857,
      "##궁": 5858,
      "##😜": 5859,
      "##큐": 5860,
      "##쉐": 5861,
      "##슥": 5862,
      "##돔": 5863,
      "##뎃": 5864,
      "##꽁": 5865,
      "##쌕": 5866,
      "##칠": 5867,
      "##쌔": 5868,
      "##김": 5869,
      "##톡": 5870,
      "##웠": 5871,
      "##렀": 5872,
      "##H": 5873,
      "##R": 5874,
      "##Z": 5875,
      "##끝": 5876,
      "##싹": 5877,
      "##닐": 5878,
      "##씌": 5879,
      "##델": 5880,
      "##빚": 5881,
      "##샤": 5882,
      "##빡": 5883,
      "##밖": 5884,
      "##샊": 5885,
      "##띵": 5886,
      "##🤮": 5887,
      "##😬": 5888,
      "##😤": 5889,
      "##째": 5890,
      "##쇠": 5891,
      "##겄": 5892,
      "##삭": 5893,
      "##륨": 5894,
      "##쨔": 5895,
      "##밈": 5896,
      "##첫": 5897,
      "##축": 5898,
      "##률": 5899,
      "##폰": 5900,
      "##쥐": 5901,
      "##엇": 5902,
      "##닷": 5903,
      "##S": 5904,
      "##엮": 5905,
      "##덩": 5906,
      "##찿": 5907,
      "##잠": 5908,
      "##M": 5909,
      "##룹": 5910,
      "##쀼": 5911,
      "##클": 5912,
      "##녕": 5913,
      "##씀": 5914,
      "##냔": 5915,
      "##펼": 5916,
      "##늙": 5917,
      "##껄": 5918,
      "##떡": 5919,
      "##냠": 5920,
      "##긋": 5921,
      "##훔": 5922,
      "##찐": 5923,
      "##깎": 5924,
      "##꼽": 5925,
      "##j": 5926,
      "##뒀": 5927,
      "##홍": 5928,
      "##묻": 5929,
      "##왑": 5930,
      "##냉": 5931,
      "##뻘": 5932,
      "##G": 5933,
      "##컴": 5934,
      "##👺": 5935,
      "##뺏": 5936,
      "##㎞": 5937,
      "##겋": 5938,
      "##칭": 5939,
      "##줍": 5940,
      "##륙": 5941,
      "##쪼": 5942,
      "##읍": 5943,
      "##앗": 5944,
      "##솨": 5945,
      "##늘": 5946,
      "##휘": 5947,
      "##뽀": 5948,
      "##똘": 5949,
      "##헐": 5950,
      "##팡": 5951,
      "##꿔": 5952,
      "##렿": 5953,
      "##싯": 5954,
      "##꿰": 5955,
      "##됨": 5956,
      "##둑": 5957,
      "##렵": 5958,
      "##ㅆ": 5959,
      "##쾌": 5960,
      "##쿵": 5961,
      "##뛰": 5962,
      "##봅": 5963,
      "##끠": 5964,
      "##퇴": 5965,
      "##ㅌ": 5966,
      "##횟": 5967,
      "##햐": 5968,
      "##쭈": 5969,
      "##쵸": 5970,
      "##졸": 5971,
      "##즘": 5972,
      "##잿": 5973,
      "##쭉": 5974,
      "##홀": 5975,
      "##뤼": 5976,
      "##듭": 5977,
      "##맠": 5978,
      "##⋅": 5979,
      "##N": 5980,
      "##떤": 5981,
      "##헬": 5982,
      "##잃": 5983,
      "##릎": 5984,
      "##꿇": 5985,
      "##윅": 5986,
      "##랏": 5987,
      "##객": 5988,
      "##엎": 5989,
      "##톱": 5990,
      "##휴": 5991,
      "##맹": 5992,
      "##넥": 5993,
      "##녹": 5994,
      "##흐": 5995,
      "##눠": 5996,
      "##솜": 5997,
      "##셈": 5998,
      "##빔": 5999,
      "##뤄": 6000,
      "##빼": 6001,
      "##헤": 6002,
      "##곡": 6003,
      "##팬": 6004,
      "##섺": 6005,
      "##땜": 6006,
      "##믐": 6007,
      "##닦": 6008,
      "##ℓ": 6009,
      "##옷": 6010,
      "##❤": 6011,
      "##웟": 6012,
      "##️": 6013,
      "##칼": 6014,
      "##👍": 6015,
      "##쎄": 6016,
      "##썩": 6017,
      "##겐": 6018,
      "##홧": 6019,
      "##톤": 6020,
      "##섭": 6021,
      "##춘": 6022,
      "##킴": 6023,
      "##꿀": 6024,
      "##벼": 6025,
      "##슴": 6026,
      "##턱": 6027,
      "##앤": 6028,
      "##챙": 6029,
      "##픈": 6030,
      "##뮈": 6031,
      "##귤": 6032,
      "##넷": 6033,
      "##렌": 6034,
      "##핸": 6035,
      "##훨": 6036,
      "##큰": 6037,
      "##뷰": 6038,
      "##튜": 6039,
      "##널": 6040,
      "##뒹": 6041,
      "##혔": 6042,
      "##멤": 6043,
      "##D": 6044,
      "##싱": 6045,
      "##㎡": 6046,
      "##랠": 6047,
      "##냄": 6048,
      "##갠": 6049,
      "##낫": 6050,
      "##V": 6051,
      "##딴": 6052,
      "##빛": 6053,
      "##앵": 6054,
      "##똑": 6055,
      "##벽": 6056,
      "##뱃": 6057,
      "##햌": 6058,
      "##솔": 6059,
      "##덮": 6060,
      "##밸": 6061,
      "##뗴": 6062,
      "##뭘": 6063,
      "##뎠": 6064,
      "##팁": 6065,
      "##엑": 6066,
      "##갤": 6067,
      "##눌": 6068,
      "##욧": 6069,
      "##륜": 6070,
      "##텅": 6071,
      "##앴": 6072,
      "##콘": 6073,
      "##졀": 6074,
      "##돕": 6075,
      "##쎈": 6076,
      "##짢": 6077,
      "##엉": 6078,
      "##🤬": 6079,
      "##😅": 6080,
      "##걱": 6081,
      "##뀐": 6082,
      "##웅": 6083,
      "##벵": 6084,
      "##숭": 6085,
      "##P": 6086,
      "##룡": 6087,
      "##앨": 6088,
      "##셋": 6089,
      "##섁": 6090,
      "##몸": 6091,
      "##탱": 6092,
      "##z": 6093,
      "##믹": 6094,
      "##뷴": 6095,
      "##뿌": 6096,
      "##렴": 6097,
      "##퉁": 6098,
      "##됩": 6099,
      "##넉": 6100,
      "##쥼": 6101,
      "##슙": 6102,
      "##녁": 6103,
      "##🕊": 6104,
      "##뜻": 6105,
      "##쌈": 6106,
      "##깽": 6107,
      "##뇬": 6108,
      "##밋": 6109,
      "##옵": 6110,
      "##씹": 6111,
      "##괄": 6112,
      "##쩍": 6113,
      "##깔": 6114,
      "##쯤": 6115,
      "##넌": 6116,
      "##훼": 6117,
      "##칸": 6118,
      "##앖": 6119,
      "##섶": 6120,
      "##뜯": 6121,
      "##묘": 6122,
      "##쉥": 6123,
      "##썬": 6124,
      "##넹": 6125,
      "##룬": 6126,
      "##꾹": 6127,
      "##띨": 6128,
      "##핳": 6129,
      "##측": 6130,
      "##씽": 6131,
      "##딘": 6132,
      "##콩": 6133,
      "##뱉": 6134,
      "##옮": 6135,
      "##틱": 6136,
      "##옹": 6137,
      "##몾": 6138,
      "##숫": 6139,
      "##쟎": 6140,
      "##잼": 6141,
      "##💙": 6142,
      "##댐": 6143,
      "##렐": 6144,
      "##헷": 6145,
      "##쫄": 6146,
      "##빗": 6147,
      "##괜": 6148,
      "##랐": 6149,
      "##뽕": 6150,
      "##졋": 6151,
      "##븐": 6152,
      "##렬": 6153,
      "##왓": 6154,
      "##컵": 6155,
      "##낀": 6156,
      "##🌸": 6157,
      "##🌺": 6158,
      "##늉": 6159,
      "##홉": 6160,
      "##됌": 6161,
      "##캐": 6162,
      "##벗": 6163,
      "##🔥": 6164,
      "##엘": 6165,
      "##깍": 6166,
      "##윈": 6167,
      "##옆": 6168,
      "##섯": 6169,
      "##납": 6170,
      "##뢰": 6171,
      "##얀": 6172,
      "##팩": 6173,
      "##깄": 6174,
      "##닠": 6175,
      "##갗": 6176,
      "##닏": 6177,
      "##짖": 6178,
      "##썼": 6179,
      "##쥬": 6180,
      "##뭉": 6181,
      "##꽂": 6182,
      "##및": 6183,
      "##👣": 6184,
      "##겅": 6185,
      "##Y": 6186,
      "##찢": 6187,
      "##🎵": 6188,
      "##🎶": 6189,
      "##녜": 6190,
      "##좃": 6191,
      "##닼": 6192,
      "##냅": 6193,
      "##쏠": 6194,
      "##뵈": 6195,
      "##씁": 6196,
      "##즐": 6197,
      "##ī": 6198,
      "##굼": 6199,
      "##릅": 6200,
      "##릿": 6201,
      "##쉨": 6202,
      "##촛": 6203,
      "##렘": 6204,
      "##뱀": 6205,
      "##걍": 6206,
      "##숴": 6207,
      "##뎅": 6208,
      "##🏻": 6209,
      "##✨": 6210,
      "##굘": 6211,
      "##뮤": 6212,
      "##뎁": 6213,
      "##깝": 6214,
      "##귄": 6215,
      "##랖": 6216,
      "##깊": 6217,
      "##잉": 6218,
      "##킹": 6219,
      "##섰": 6220,
      "##멊": 6221,
      "##ㅁ": 6222,
      "##꽈": 6223,
      "##윗": 6224,
      "##앱": 6225,
      "##웁": 6226,
      "##봣": 6227,
      "##뚝": 6228,
      "##🍎": 6229,
      "##맥": 6230,
      "##쫌": 6231,
      "##촬": 6232,
      "##엏": 6233,
      "##쿄": 6234,
      "##랔": 6235,
      "##껴": 6236,
      "##냨": 6237,
      "##묜": 6238,
      "##빳": 6239,
      "##ñ": 6240,
      "##팠": 6241,
      "##윘": 6242,
      "##쌬": 6243,
      "##펀": 6244,
      "##맨": 6245,
      "##꿈": 6246,
      "##핥": 6247,
      "##귓": 6248,
      "##콤": 6249,
      "##딨": 6250,
      "##뱅": 6251,
      "##긔": 6252,
      "##랙": 6253,
      "##룻": 6254,
      "##U": 6255,
      "##킥": 6256,
      "##낰": 6257,
      "##🤯": 6258,
      "##틋": 6259,
      "##💛": 6260,
      "##①": 6261,
      "##엣": 6262,
      "##솰": 6263,
      "##꿉": 6264,
      "##몬": 6265,
      "##❗": 6266,
      "##렷": 6267,
      "##햏": 6268,
      "##콜": 6269,
      "##벙": 6270,
      "##뷔": 6271,
      "##°": 6272,
      "##빅": 6273,
      "##꿨": 6274,
      "##깡": 6275,
      "##즛": 6276,
      "##롬": 6277,
      "##쮸": 6278,
      "##닛": 6279,
      "##밤": 6280,
      "##톨": 6281,
      "##봌": 6282,
      "##삽": 6283,
      "##쉑": 6284,
      "##죡": 6285,
      "##쉴": 6286,
      "##댔": 6287,
      "##꼼": 6288,
      "##엌": 6289,
      "##껑": 6290,
      "##겜": 6291,
      "##틈": 6292,
      "##숍": 6293,
      "##뒈": 6294,
      "##쫑": 6295,
      "##냇": 6296,
      "##췬": 6297,
      "##²": 6298,
      "##샋": 6299,
      "##댄": 6300,
      "##캔": 6301,
      "##뚤": 6302,
      "##럿": 6303,
      "##듀": 6304,
      "##컄": 6305,
      "##풉": 6306,
      "##킼": 6307,
      "##쩝": 6308,
      "##셍": 6309,
      "##낑": 6310,
      "##켯": 6311,
      "##렛": 6312,
      "##갯": 6313,
      "##젊": 6314,
      "##꿋": 6315,
      "##밌": 6316,
      "##쉌": 6317,
      "##샷": 6318,
      "##삥": 6319,
      "##쉰": 6320,
      "##W": 6321,
      "##꺽": 6322,
      "##줫": 6323,
      "##텻": 6324,
      "##펴": 6325,
      "##눼": 6326,
      "##텨": 6327,
      "##쯔": 6328,
      "##Ⅱ": 6329,
      "##🔖": 6330,
      "##낮": 6331,
      "##늄": 6332,
      "##뫃": 6333,
      "##뀨": 6334,
      "##잊": 6335,
      "##뜬": 6336,
      "##헜": 6337,
      "##싄": 6338,
      "##렉": 6339,
      "##젖": 6340,
      "##け": 6341,
      "##う": 6342,
      "##ち": 6343,
      "##왠": 6344,
      "##챗": 6345,
      "##🕯": 6346,
      "##쑨": 6347,
      "##팽": 6348,
      "##훠": 6349,
      "##궐": 6350,
      "##칵": 6351,
      "##팍": 6352,
      "##칩": 6353,
      "##촤": 6354,
      "##뻐": 6355,
      "##밭": 6356,
      "##쯧": 6357,
      "##😁": 6358,
      "##컨": 6359,
      "##흉": 6360,
      "##갰": 6361,
      "##탑": 6362,
      "##앟": 6363,
      "##겪": 6364,
      "##뇸": 6365,
      "##겊": 6366,
      "##탔": 6367,
      "##쉘": 6368,
      "##😄": 6369,
      "##😉": 6370,
      "##뉘": 6371,
      "##🌹": 6372,
      "##🍑": 6373,
      "##🌟": 6374,
      "##짘": 6375,
      "##덴": 6376,
      "##캠": 6377,
      "##콧": 6378,
      "##솤": 6379,
      "##녘": 6380,
      "##됀": 6381,
      "##췄": 6382,
      "##댑": 6383,
      "##🏾": 6384,
      "##🐵": 6385,
      "##🐏": 6386,
      "##밨": 6387,
      "##쾡": 6388,
      "##몆": 6389,
      "##△": 6390,
      "##휠": 6391,
      "##훌": 6392,
      "##륭": 6393,
      "##츙": 6394,
      "##멜": 6395,
      "##맸": 6396,
      "##돋": 6397,
      "##쌀": 6398,
      "##킈": 6399,
      "##릐": 6400,
      "##햔": 6401,
      "##롯": 6402,
      "##헉": 6403,
      "##💢": 6404,
      "##껭": 6405,
      "##멀": 6406,
      "##삣": 6407,
      "##횔": 6408,
      "##썰": 6409,
      "##굳": 6410,
      "##ㆍ": 6411,
      "##솥": 6412,
      "##뭇": 6413,
      "##흑": 6414,
      "##핍": 6415,
      "##🇰": 6416,
      "##🇷": 6417,
      "##뿔": 6418,
      "##녔": 6419,
      "##펑": 6420,
      "##딪": 6421,
      "##쳣": 6422,
      "##→": 6423,
      "##샵": 6424,
      "##몫": 6425,
      "##뚜": 6426,
      "##❣": 6427,
      "##눙": 6428,
      "##×": 6429,
      "##팰": 6430,
      "##펫": 6431,
      "##꼭": 6432,
      "##쭝": 6433,
      "##듸": 6434,
      "##섀": 6435,
      "##핫": 6436,
      "##꼿": 6437,
      "##뿡": 6438,
      "##붇": 6439,
      "##짐": 6440,
      "##얔": 6441,
      "##팥": 6442,
      "##걔": 6443,
      "##캬": 6444,
      "##첵": 6445,
      "##칫": 6446,
      "##💞": 6447,
      "##밑": 6448,
      "##뢀": 6449,
      "##굽": 6450,
      "##쌓": 6451,
      "##썻": 6452,
      "##빽": 6453,
      "##🇵": 6454,
      "##넝": 6455,
      "##썪": 6456,
      "##톳": 6457,
      "##곱": 6458,
      "##밧": 6459,
      "##픔": 6460,
      "##횽": 6461,
      "##멱": 6462,
      "##삔": 6463,
      "##뗀": 6464,
      "##룩": 6465,
      "##쌨": 6466,
      "##긱": 6467,
      "##뚫": 6468,
      "##낟": 6469,
      "##찡": 6470,
      "##둿": 6471,
      "##쌩": 6472,
      "##켠": 6473,
      "##씝": 6474,
      "##잎": 6475,
      "##썹": 6476,
      "##챈": 6477,
      "##맡": 6478,
      "##짠": 6479,
      "##켄": 6480,
      "##씻": 6481,
      "##맺": 6482,
      "##쟈": 6483,
      "##↔": 6484,
      "##🤔": 6485,
      "##먄": 6486,
      "##リ": 6487,
      "##ン": 6488,
      "##끙": 6489,
      "##맑": 6490,
      "##ㄸ": 6491,
      "##ㅠ": 6492,
      "##헹": 6493,
      "##눅": 6494,
      "##뜰": 6495,
      "##옛": 6496,
      "##💜": 6497,
      "##굥": 6498,
      "##셉": 6499,
      "##젼": 6500,
      "##🔮": 6501,
      "##é": 6502,
      "##뜩": 6503,
      "##컹": 6504,
      "##늣": 6505,
      "##✔": 6506,
      "##젆": 6507,
      "##텍": 6508,
      "##맵": 6509,
      "##눔": 6510,
      "##죙": 6511,
      "##읎": 6512,
      "##긍": 6513,
      "##닉": 6514,
      "##꿍": 6515,
      "##퉈": 6516,
      "##멉": 6517,
      "##옙": 6518,
      "##콰": 6519,
      "##끽": 6520,
      "##넠": 6521,
      "##킵": 6522,
      "##죵": 6523,
      "##읏": 6524,
      "##벅": 6525,
      "##쐬": 6526,
      "##찻": 6527,
      "##꽝": 6528,
      "##쏜": 6529,
      "##캡": 6530,
      "##톄": 6531,
      "##왈": 6532,
      "##쾅": 6533,
      "##훑": 6534,
      "##훅": 6535,
      "##졔": 6536,
      "##쌤": 6537,
      "##됄": 6538,
      "##롼": 6539,
      "##숩": 6540,
      "##붓": 6541,
      "##⑴": 6542,
      "##끗": 6543,
      "##υ": 6544,
      "##ν": 6545,
      "##α": 6546,
      "##σ": 6547,
      "##τ": 6548,
      "##ε": 6549,
      "##ί": 6550,
      "##벡": 6551,
      "##샹": 6552,
      "##🔫": 6553,
      "##랩": 6554,
      "##낯": 6555,
      "##늗": 6556,
      "##폄": 6557,
      "##궤": 6558,
      "##뻑": 6559,
      "##넸": 6560,
      "##묶": 6561,
      "##잽": 6562,
      "##죈": 6563,
      "##댁": 6564,
      "##뺌": 6565,
      "##앜": 6566,
      "##～": 6567,
      "##볍": 6568,
      "##뇽": 6569,
      "##쉭": 6570,
      "##뱡": 6571,
      "##낍": 6572,
      "##핀": 6573,
      "##샀": 6574,
      "##쥤": 6575,
      "##넵": 6576,
      "##쫓": 6577,
      "##곧": 6578,
      "##딤": 6579,
      "##욤": 6580,
      "##잪": 6581,
      "##쌰": 6582,
      "##퀄": 6583,
      "##젓": 6584,
      "##쌋": 6585,
      "##─": 6586,
      "##쎅": 6587,
      "##됍": 6588,
      "##😣": 6589,
      "##😱": 6590,
      "##🐒": 6591,
      "##🦍": 6592,
      "##🦊": 6593,
      "##꽌": 6594,
      "##핏": 6595,
      "##얌": 6596,
      "##펄": 6597,
      "##씬": 6598,
      "##뛴": 6599,
      "##쨍": 6600,
      "##흙": 6601,
      "##펌": 6602,
      "##얄": 6603,
      "##듷": 6604,
      "##♂": 6605,
      "##♀": 6606,
      "##🌋": 6607,
      "##😍": 6608,
      "##😊": 6609,
      "##뺄": 6610,
      "##죗": 6611,
      "##덧": 6612,
      "##💃": 6613,
      "##쪌": 6614,
      "##셕": 6615,
      "##쑥": 6616,
      "##뤠": 6617,
      "##딕": 6618,
      "##깃": 6619,
      "##팝": 6620,
      "##꼰": 6621,
      "##틴": 6622,
      "##엥": 6623,
      "##캄": 6624,
      "##♥": 6625,
      "##싡": 6626,
      "##🇯": 6627,
      "##쩜": 6628,
      "##퐁": 6629,
      "##죳": 6630,
      "##쓱": 6631,
      "##챦": 6632,
      "##쟝": 6633,
      "##쌉": 6634,
      "##텃": 6635,
      "##👎": 6636,
      "##👹": 6637,
      "##🧟": 6638,
      "##🥶": 6639,
      "##○": 6640,
      "##젛": 6641,
      "##멕": 6642,
      "##젗": 6643,
      "##꽥": 6644,
      "##쪘": 6645,
      "##좔": 6646,
      "##쉣": 6647,
      "##뿜": 6648,
      "##놐": 6649,
      "##껬": 6650,
      "##쮜": 6651,
      "##깅": 6652,
      "##죤": 6653,
      "##묭": 6654,
      "##귿": 6655,
      "##뮬": 6656,
      "##찝": 6657,
      "##쿤": 6658,
      "##👉": 6659,
      "##😮": 6660,
      "##쫭": 6661,
      "##롸": 6662,
      "##웰": 6663,
      "##듦": 6664,
      "##갇": 6665,
      "##뜸": 6666,
      "##갘": 6667,
      "##볶": 6668,
      "##툼": 6669,
      "##👧": 6670,
      "##💖": 6671,
      "##곘": 6672,
      "##뼈": 6673,
      "##굶": 6674,
      "##씸": 6675,
      "##젝": 6676,
      "##밴": 6677,
      "##뺑": 6678,
      "##🍓": 6679,
      "##촘": 6680,
      "##굉": 6681,
      "##탠": 6682,
      "##✌": 6683,
      "##쩡": 6684,
      "##🤣": 6685,
      "##룸": 6686,
      "##쌌": 6687,
      "##🏽": 6688,
      "##❌": 6689,
      "##쩐": 6690,
      "##😰": 6691,
      "##😖": 6692,
      "##뻥": 6693,
      "##퉤": 6694,
      "##켈": 6695,
      "##챠": 6696,
      "##쥰": 6697,
      "##쳬": 6698,
      "##뮨": 6699,
      "##썽": 6700,
      "##윽": 6701,
      "##늬": 6702,
      "##땀": 6703,
      "##㎏": 6704,
      "##랰": 6705,
      "##덥": 6706,
      "##짬": 6707,
      "##쪕": 6708,
      "##쫍": 6709,
      "##껍": 6710,
      "##졷": 6711,
      "##μ": 6712,
      "##헣": 6713,
      "##늦": 6714,
      "##и": 6715,
      "##с": 6716,
      "##т": 6717,
      "##р": 6718,
      "##е": 6719,
      "##н": 6720,
      "##찜": 6721,
      "##벧": 6722,
      "##볌": 6723,
      "##컬": 6724,
      "##🤭": 6725,
      "##냑": 6726,
      "##펠": 6727,
      "##💩": 6728,
      "##🐀": 6729,
      "##👊": 6730,
      "##뱐": 6731,
      "##뎨": 6732,
      "##롴": 6733,
      "##▶": 6734,
      "##땟": 6735,
      "##츨": 6736,
      "##랃": 6737,
      "##뭣": 6738,
      "##맴": 6739,
      "##컸": 6740,
      "##젴": 6741,
      "##뼝": 6742,
      "##옳": 6743,
      "##폼": 6744,
      "##봊": 6745,
      "##싞": 6746,
      "##🔊": 6747,
      "##뻗": 6748,
      "##ｍ": 6749,
      "##얏": 6750,
      "##얹": 6751,
      "##밉": 6752,
      "##＞": 6753,
      "##곸": 6754,
      "##젰": 6755,
      "##끋": 6756,
      "##😇": 6757,
      "##갸": 6758,
      "##₂": 6759,
      "##텟": 6760,
      "##😨": 6761,
      "##슛": 6762,
      "##욬": 6763,
      "##뤘": 6764,
      "##쁠": 6765,
      "##🏼": 6766,
      "##🖕": 6767,
      "##둡": 6768,
      "##∙": 6769,
      "##뽄": 6770,
      "##곽": 6771,
      "##■": 6772,
      "##빱": 6773,
      "##쟌": 6774,
      "##🤤": 6775,
      "##츤": 6776,
      "##옌": 6777,
      "##꿎": 6778,
      "##젤": 6779,
      "##웹": 6780,
      "##곯": 6781,
      "##쇗": 6782,
      "##겉": 6783,
      "##첬": 6784,
      "##뺠": 6785,
      "##팜": 6786,
      "##⭐": 6787,
      "##🍭": 6788,
      "##🥇": 6789,
      "##🤴": 6790,
      "##괸": 6791,
      "##➡": 6792,
      "##쬐": 6793,
      "##긕": 6794,
      "##탸": 6795,
      "##뿅": 6796,
      "##쳔": 6797,
      "##쒝": 6798,
      "##㈜": 6799,
      "##즤": 6800,
      "##촞": 6801,
      "##좟": 6802,
      "##괭": 6803,
      "##욜": 6804,
      "##웜": 6805,
      "##틍": 6806,
      "##럈": 6807,
      "##솟": 6808,
      "##겔": 6809,
      "##💕": 6810,
      "##싰": 6811,
      "##💥": 6812,
      "##딹": 6813,
      "##뱔": 6814,
      "##욘": 6815,
      "##😌": 6816,
      "##🙏": 6817,
      "##뺀": 6818,
      "##햤": 6819,
      "##뼘": 6820,
      "##읊": 6821,
      "##㎝": 6822,
      "##ά": 6823,
      "##ο": 6824,
      "##ς": 6825,
      "##🐮": 6826,
      "##횐": 6827,
      "##썸": 6828,
      "##엊": 6829,
      "##뼉": 6830,
      "##🖤": 6831,
      "##툽": 6832,
      "##햬": 6833,
      "##떴": 6834,
      "##넨": 6835,
      "##솓": 6836,
      "##™": 6837,
      "##됭": 6838,
      "##뗏": 6839,
      "##튬": 6840,
      "##맏": 6841,
      "##떙": 6842,
      "##뭡": 6843,
      "##샴": 6844,
      "##뭄": 6845,
      "##쟤": 6846,
      "##읺": 6847,
      "##떄": 6848,
      "##뗘": 6849,
      "##깠": 6850,
      "##😆": 6851,
      "##㎾": 6852,
      "##핰": 6853,
      "##쫏": 6854,
      "##톼": 6855,
      "##헝": 6856,
      "##샛": 6857,
      "##먈": 6858,
      "##왼": 6859,
      "##쥴": 6860,
      "##잏": 6861,
      "##잦": 6862,
      "##팟": 6863,
      "##а": 6864,
      "##ы": 6865,
      "##м": 6866,
      "##к": 6867,
      "##я": 6868,
      "##맬": 6869,
      "##몹": 6870,
      "##😃": 6871,
      "##쪾": 6872,
      "##🌶": 6873,
      "##🐨": 6874,
      "##찼": 6875,
      "##둉": 6876,
      "##셀": 6877,
      "##쇅": 6878,
      "##줴": 6879,
      "##🐦": 6880,
      "##몀": 6881,
      "##셰": 6882,
      "##탬": 6883,
      "##캉": 6884,
      "##힝": 6885,
      "##😛": 6886,
      "##븍": 6887,
      "##쁨": 6888,
      "##빴": 6889,
      "##롷": 6890,
      "##휜": 6891,
      "##딛": 6892,
      "##쳉": 6893,
      "##띁": 6894,
      "##쯩": 6895,
      "##ü": 6896,
      "##ß": 6897,
      "##잤": 6898,
      "##뎀": 6899,
      "##긁": 6900,
      "##쒜": 6901,
      "##몈": 6902,
      "##넓": 6903,
      "##뮌": 6904,
      "##밷": 6905,
      "##깤": 6906,
      "##□": 6907,
      "##쇤": 6908,
      "##뽤": 6909,
      "##섻": 6910,
      "##띡": 6911,
      "##닜": 6912,
      "##맣": 6913,
      "##뢔": 6914,
      "##ä": 6915,
      "##앚": 6916,
      "##렙": 6917,
      "##곀": 6918,
      "##쏙": 6919,
      "##쵝": 6920,
      "##짆": 6921,
      "##ö": 6922,
      "##뉨": 6923,
      "##켐": 6924,
      "##젔": 6925,
      "##い": 6926,
      "##つ": 6927,
      "##と": 6928,
      "##벚": 6929,
      "##핮": 6930,
      "##곪": 6931,
      "##푹": 6932,
      "##Q": 6933,
      "##숀": 6934,
      "##🤪": 6935,
      "##벞": 6936,
      "##찹": 6937,
      "##켬": 6938,
      "##딲": 6939,
      "##챤": 6940,
      "##솼": 6941,
      "##숑": 6942,
      "##🐴": 6943,
      "##숄": 6944,
      "##쩨": 6945,
      "##맟": 6946,
      "##챔": 6947,
      "##룽": 6948,
      "##곰": 6949,
      "##텀": 6950,
      "##콴": 6951,
      "##💗": 6952,
      "##💓": 6953,
      "##💘": 6954,
      "##💚": 6955,
      "##먀": 6956,
      "##꽐": 6957,
      "##녓": 6958,
      "##붐": 6959,
      "##뭍": 6960,
      "##팸": 6961,
      "##돗": 6962,
      "##숲": 6963,
      "##훙": 6964,
      "##샐": 6965,
      "##빋": 6966,
      "##🐙": 6967,
      "##붉": 6968,
      "##😑": 6969,
      "##🔪": 6970,
      "##꽉": 6971,
      "##댱": 6972,
      "##첸": 6973,
      "##💰": 6974,
      "##꼇": 6975,
      "##렼": 6976,
      "##탰": 6977,
      "##돛": 6978,
      "##😈": 6979,
      "##А": 6980,
      "##В": 6981,
      "##🤷": 6982,
      "##먜": 6983,
      "##섣": 6984,
      "##돜": 6985,
      "##겻": 6986,
      "##몃": 6987,
      "##뾰": 6988,
      "##솝": 6989,
      "##🐂": 6990,
      "##뱌": 6991,
      "##뎈": 6992,
      "##싀": 6993,
      "##큘": 6994,
      "##빕": 6995,
      "##싢": 6996,
      "##👿": 6997,
      "##챌": 6998,
      "##땠": 6999,
      "##몌": 7000,
      "##탉": 7001,
      "##볔": 7002,
      "##잰": 7003,
      "##얍": 7004,
      "##얽": 7005,
      "##밣": 7006,
      "##슘": 7007,
      "##뭬": 7008,
      "##퉷": 7009,
      "##깟": 7010,
      "##↑": 7011,
      "##꺠": 7012,
      "##땨": 7013,
      "##촟": 7014,
      "##켔": 7015,
      "##냬": 7016,
      "##퐝": 7017,
      "##킷": 7018,
      "##껌": 7019,
      "##땁": 7020,
      "##ر": 7021,
      "##د": 7022,
      "##ا": 7023,
      "##و": 7024,
      "##갹": 7025,
      "##뱁": 7026,
      "##툴": 7027,
      "##❓": 7028,
      "##헨": 7029,
      "##왛": 7030,
      "##슁": 7031,
      "##곷": 7032,
      "##좇": 7033,
      "##땈": 7034,
      "##푯": 7035,
      "##뜁": 7036,
      "##닺": 7037,
      "##낏": 7038,
      "##¤": 7039,
      "##ā": 7040,
      "##쫘": 7041,
      "##덟": 7042,
      "##ニ": 7043,
      "##ス": 7044,
      "##カ": 7045,
      "##껐": 7046,
      "##짚": 7047,
      "##탭": 7048,
      "##뷸": 7049,
      "##🐾": 7050,
      "##쏭": 7051,
      "##🦠": 7052,
      "##칀": 7053,
      "##슼": 7054,
      "##좨": 7055,
      "##쥔": 7056,
      "##샥": 7057,
      "##댸": 7058,
      "##≫": 7059,
      "##뺐": 7060,
      "##뵤": 7061,
      "##뗐": 7062,
      "##😗": 7063,
      "##ッ": 7064,
      "##タ": 7065,
      "##슉": 7066,
      "##긑": 7067,
      "##횃": 7068,
      "##휩": 7069,
      "##톈": 7070,
      "##욥": 7071,
      "##쉒": 7072,
      "##콕": 7073,
      "##샆": 7074,
      "##뇰": 7075,
      "##뺨": 7076,
      "##뻤": 7077,
      "##맂": 7078,
      "##롄": 7079,
      "##ι": 7080,
      "##λ": 7081,
      "##㎿": 7082,
      "##÷": 7083,
      "##뀝": 7084,
      "##앍": 7085,
      "##🐖": 7086,
      "##🦅": 7087,
      "##🙄": 7088,
      "##윙": 7089,
      "##힛": 7090,
      "##🤩": 7091,
      "##곹": 7092,
      "##엨": 7093,
      "##웡": 7094,
      "##뮹": 7095,
      "##솬": 7096,
      "##＋": 7097,
      "##젱": 7098,
      "##솽": 7099,
      "##🔨": 7100,
      "##맀": 7101,
      "##렜": 7102,
      "##댠": 7103,
      "##핌": 7104,
      "##꼐": 7105,
      "##｜": 7106,
      "##у": 7107,
      "##з": 7108,
      "##깼": 7109,
      "##눞": 7110,
      "##캅": 7111,
      "##벱": 7112,
      "##짔": 7113,
      "##룀": 7114,
      "##쟜": 7115,
      "##│": 7116,
      "##꾀": 7117,
      "##짭": 7118,
      "##🐩": 7119,
      "##팼": 7120,
      "##췌": 7121,
      "##댖": 7122,
      "##깉": 7123,
      "##셥": 7124,
      "##핡": 7125,
      "##떵": 7126,
      "##♣": 7127,
      "##씐": 7128,
      "##흰": 7129,
      "##냌": 7130,
      "##텁": 7131,
      "##🐓": 7132,
      "##🤨": 7133,
      "##☞": 7134,
      "##즹": 7135,
      "##흠": 7136,
      "##굿": 7137,
      "##츈": 7138,
      "##🐑": 7139,
      "##죧": 7140,
      "##쫩": 7141,
      "##쿰": 7142,
      "##즙": 7143,
      "##🔵": 7144,
      "##샬": 7145,
      "##넜": 7146,
      "##몯": 7147,
      "##ら": 7148,
      "##겆": 7149,
      "##뱄": 7150,
      "##뀔": 7151,
      "##꽤": 7152,
      "##윌": 7153,
      "##릏": 7154,
      "##쑬": 7155,
      "##넙": 7156,
      "##삯": 7157,
      "##셑": 7158,
      "##쥑": 7159,
      "##쨈": 7160,
      "##뙈": 7161,
      "##벛": 7162,
      "##ь": 7163,
      "##맆": 7164,
      "##쭐": 7165,
      "##に": 7166,
      "##よ": 7167,
      "##🎊": 7168,
      "##👑": 7169,
      "##튕": 7170,
      "##듄": 7171,
      "##낡": 7172,
      "##낲": 7173,
      "##벋": 7174,
      "##➖": 7175,
      "##둠": 7176,
      "##셴": 7177,
      "##㎥": 7178,
      "##띰": 7179,
      "##꿘": 7180,
      "##쑹": 7181,
      "##뽈": 7182,
      "##삑": 7183,
      "##뎐": 7184,
      "##쉿": 7185,
      "##뻣": 7186,
      "##☺": 7187,
      "##늪": 7188,
      "##넴": 7189,
      "##옶": 7190,
      "##긧": 7191,
      "##🔞": 7192,
      "##읃": 7193,
      "##뤈": 7194,
      "##떔": 7195,
      "##셌": 7196,
      "##뵜": 7197,
      "##깁": 7198,
      "##줏": 7199,
      "##섲": 7200,
      "##빻": 7201,
      "##볜": 7202,
      "##퍅": 7203,
      "##슌": 7204,
      "##톰": 7205,
      "##룐": 7206,
      "##읋": 7207,
      "##눟": 7208,
      "##잌": 7209,
      "##핬": 7210,
      "##쭤": 7211,
      "##껒": 7212,
      "##😳": 7213,
      "##딧": 7214,
      "##캍": 7215,
      "##왁": 7216,
      "##샇": 7217,
      "##삵": 7218,
      "##😝": 7219,
      "##켕": 7220,
      "##겤": 7221,
      "##랗": 7222,
      "##츄": 7223,
      "##℃": 7224,
      "##줙": 7225,
      "##춧": 7226,
      "##꺾": 7227,
      "##🥳": 7228,
      "##쇡": 7229,
      "##쓉": 7230,
      "##ー": 7231,
      "##굵": 7232,
      "##믜": 7233,
      "##낚": 7234,
      "##③": 7235,
      "##괞": 7236,
      "##땍": 7237,
      "##헙": 7238,
      "##눕": 7239,
      "##촨": 7240,
      "##믾": 7241,
      "##샣": 7242,
      "##폿": 7243,
      "##츳": 7244,
      "##쌖": 7245,
      "##🐯": 7246,
      "##쐐": 7247,
      "##귾": 7248,
      "##η": 7249,
      "##ρ": 7250,
      "##덫": 7251,
      "##읜": 7252,
      "##겈": 7253,
      "##짼": 7254,
      "##렝": 7255,
      "##л": 7256,
      "##о": 7257,
      "##й": 7258,
      "##х": 7259,
      "##㎖": 7260,
      "##읗": 7261,
      "##곈": 7262,
      "##팎": 7263,
      "##쎼": 7264,
      "##랸": 7265,
      "##싣": 7266,
      "##젹": 7267,
      "##굔": 7268,
      "##슐": 7269,
      "##쑵": 7270,
      "##힉": 7271,
      "##딍": 7272,
      "##캥": 7273,
      "##쐉": 7274,
      "##걀": 7275,
      "##깬": 7276,
      "##뽁": 7277,
      "##닯": 7278,
      "##😎": 7279,
      "##★": 7280,
      "##뽝": 7281,
      "##́": 7282,
      "##в": 7283,
      "##먕": 7284,
      "##펏": 7285,
      "##뽐": 7286,
      "##㎎": 7287,
      "##겍": 7288,
      "##긐": 7289,
      "##🚢": 7290,
      "##읅": 7291,
      "##햄": 7292,
      "##뙤": 7293,
      "##뽜": 7294,
      "##옇": 7295,
      "##🦜": 7296,
      "##텡": 7297,
      "##촣": 7298,
      "##㎜": 7299,
      "##셤": 7300,
      "##뿍": 7301,
      "##㏊": 7302,
      "##켑": 7303,
      "##み": 7304,
      "##텝": 7305,
      "##쿸": 7306,
      "##が": 7307,
      "##셩": 7308,
      "##멩": 7309,
      "##흄": 7310,
      "##😫": 7311,
      "##퇘": 7312,
      "##늫": 7313,
      "##돟": 7314,
      "##👀": 7315,
      "##짛": 7316,
      "##떈": 7317,
      "##힙": 7318,
      "##샅": 7319,
      "##숸": 7320,
      "##👋": 7321,
      "##꾜": 7322,
      "##●": 7323,
      "##ア": 7324,
      "##ク": 7325,
      "##ł": 7326,
      "##뵹": 7327,
      "##녠": 7328,
      "##퐐": 7329,
      "##쨩": 7330,
      "##퉛": 7331,
      "##쨋": 7332,
      "##듈": 7333,
      "##퀵": 7334,
      "##싴": 7335,
      "##텬": 7336,
      "##뗄": 7337,
      "##춥": 7338,
      "##폈": 7339,
      "##놯": 7340,
      "##🐅": 7341,
      "##켸": 7342,
      "##찟": 7343,
      "##💟": 7344,
      "##💝": 7345,
      "##잩": 7346,
      "##깆": 7347,
      "##섕": 7348,
      "##훍": 7349,
      "##묙": 7350,
      "##핝": 7351,
      "##✊": 7352,
      "##둣": 7353,
      "##갬": 7354,
      "##홋": 7355,
      "##셐": 7356,
      "##뉜": 7357,
      "##헿": 7358,
      "##핧": 7359,
      "##긌": 7360,
      "##🥰": 7361,
      "##짙": 7362,
      "##⑤": 7363,
      "##믕": 7364,
      "##줮": 7365,
      "##긒": 7366,
      "##쪙": 7367,
      "##💪": 7368,
      "##얜": 7369,
      "##뽂": 7370,
      "##줃": 7371,
      "##덱": 7372,
      "##팹": 7373,
      "##ㅡ": 7374,
      "##샨": 7375,
      "##🥊": 7376,
      "##죹": 7377,
      "##럄": 7378,
      "##뗑": 7379,
      "##붑": 7380,
      "##펭": 7381,
      "##첼": 7382,
      "##붜": 7383,
      "##헥": 7384,
      "##캤": 7385,
      "##웤": 7386,
      "##땃": 7387,
      "##뮴": 7388,
      "##읁": 7389,
      "##쁀": 7390,
      "##얕": 7391,
      "##볕": 7392,
      "##캇": 7393,
      "##앎": 7394,
      "##쭙": 7395,
      "##🍞": 7396,
      "##퇬": 7397,
      "##앓": 7398,
      "##웈": 7399,
      "##쉈": 7400,
      "##녛": 7401,
      "##똣": 7402,
      "##🧡": 7403,
      "##짧": 7404,
      "##❎": 7405,
      "##뺘": 7406,
      "##ê": 7407,
      "##똬": 7408,
      "##🗣": 7409,
      "##튈": 7410,
      "##뭏": 7411,
      "##쾍": 7412,
      "##땄": 7413,
      "##윳": 7414,
      "##찧": 7415,
      "##맗": 7416,
      "##풋": 7417,
      "##🦶": 7418,
      "##뜾": 7419,
      "##왘": 7420,
      "##â": 7421,
      "##좉": 7422,
      "##🇺": 7423,
      "##🇸": 7424,
      "##삘": 7425,
      "##궹": 7426,
      "##㉠": 7427,
      "##엾": 7428,
      "##홰": 7429,
      "##🌻": 7430,
      "##츌": 7431,
      "##헀": 7432,
      "##닳": 7433,
      "##👈": 7434,
      "##뙨": 7435,
      "##뛔": 7436,
      "##깰": 7437,
      "##깻": 7438,
      "##뭥": 7439,
      "##🙌": 7440,
      "##쏫": 7441,
      "##냘": 7442,
      "##😓": 7443,
      "##늕": 7444,
      "##엤": 7445,
      "##탹": 7446,
      "##죸": 7447,
      "##ə": 7448,
      "##읇": 7449,
      "##뜹": 7450,
      "##☀": 7451,
      "##왤": 7452,
      "##춍": 7453,
      "##㎢": 7454,
      "##뫼": 7455,
      "##줭": 7456,
      "##쟙": 7457,
      "##큭": 7458,
      "##🌷": 7459,
      "##😥": 7460,
      "##😢": 7461,
      "##🤢": 7462,
      "##죴": 7463,
      "##＝": 7464,
      "##랼": 7465,
      "##넿": 7466,
      "##뭌": 7467,
      "##귐": 7468,
      "##맄": 7469,
      "##😵": 7470,
      "##샏": 7471,
      "##♦": 7472,
      "##놰": 7473,
      "##챵": 7474,
      "##튠": 7475,
      "##섴": 7476,
      "##퐉": 7477,
      "##궸": 7478,
      "##숖": 7479,
      "##깩": 7480,
      "##る": 7481,
      "##ま": 7482,
      "##몄": 7483,
      "##숟": 7484,
      "##잴": 7485,
      "##짯": 7486,
      "##녈": 7487,
      "##븡": 7488,
      "##깥": 7489,
      "##잀": 7490,
      "##눴": 7491,
      "##귁": 7492,
      "##깂": 7493,
      "##コ": 7494,
      "##헸": 7495,
      "##꿜": 7496,
      "##닞": 7497,
      "##젭": 7498,
      "##셸": 7499,
      "##셱": 7500,
      "##뿟": 7501,
      "##⃣": 7502,
      "##핼": 7503,
      "##얃": 7504,
      "##봬": 7505,
      "##쥣": 7506,
      "##옫": 7507,
      "##🤦": 7508,
      "##☠": 7509,
      "##졎": 7510,
      "##슆": 7511,
      "##🇳": 7512,
      "##늑": 7513,
      "##좈": 7514,
      "##😴": 7515,
      "##쎜": 7516,
      "##퀀": 7517,
      "##햑": 7518,
      "##싷": 7519,
      "##멧": 7520,
      "##궂": 7521,
      "##젯": 7522,
      "##ド": 7523,
      "##レ": 7524,
      "##쥘": 7525,
      "##젿": 7526,
      "##읆": 7527,
      "##웩": 7528,
      "##갛": 7529,
      "##뻬": 7530,
      "##㈎": 7531,
      "##맇": 7532,
      "##밬": 7533,
      "##닶": 7534,
      "##옘": 7535,
      "##짹": 7536,
      "##믓": 7537,
      "##큽": 7538,
      "##랒": 7539,
      "##🤗": 7540,
      "##겝": 7541,
      "##웬": 7542,
      "##쬬": 7543,
      "##놘": 7544,
      "##🍀": 7545,
      "##궄": 7546,
      "##봑": 7547,
      "##🙋": 7548,
      "##멎": 7549,
      "##챘": 7550,
      "##궜": 7551,
      "##툐": 7552,
      "##쩧": 7553,
      "##á": 7554,
      "##쎠": 7555,
      "##😩": 7556,
      "##な": 7557,
      "##り": 7558,
      "##ナ": 7559,
      "##윕": 7560,
      "##걑": 7561,
      "##ル": 7562,
      "##낵": 7563,
      "##š": 7564,
      "##쒼": 7565,
      "##웍": 7566,
      "##븥": 7567,
      "##깈": 7568,
      "##빰": 7569,
      "##붸": 7570,
      "##퇄": 7571,
      "##챡": 7572,
      "##쳘": 7573,
      "##κ": 7574,
      "##늡": 7575,
      "##눜": 7576,
      "##じ": 7577,
      "##쉼": 7578,
      "##텋": 7579,
      "##쇳": 7580,
      "##☆": 7581,
      "##촥": 7582,
      "##듕": 7583,
      "##썌": 7584,
      "##왱": 7585,
      "##덯": 7586,
      "##か": 7587,
      "##짊": 7588,
      "##쐑": 7589,
      "##💀": 7590,
      "##럾": 7591,
      "##😋": 7592,
      "##↗": 7593,
      "##굻": 7594,
      "##뛸": 7595,
      "##®": 7596,
      "##뗌": 7597,
      "##둰": 7598,
      "##퍄": 7599,
      "##뵌": 7600,
      "##켁": 7601,
      "##얇": 7602,
      "##틁": 7603,
      "##쳇": 7604,
      "##😞": 7605,
      "##켤": 7606,
      "##훤": 7607,
      "##싮": 7608,
      "##🍉": 7609,
      "##♨": 7610,
      "##픙": 7611,
      "##㈏": 7612,
      "##멨": 7613,
      "##쐈": 7614,
      "##짰": 7615,
      "##윾": 7616,
      "##쇽": 7617,
      "##퀸": 7618,
      "##짴": 7619,
      "##㏄": 7620,
      "##👴": 7621,
      "##😒": 7622,
      "##넒": 7623,
      "##æ": 7624,
      "##뀠": 7625,
      "##넋": 7626,
      "##텼": 7627,
      "##찎": 7628,
      "##🗡": 7629,
      "##⭕": 7630,
      "##븨": 7631,
      "##몐": 7632,
      "##졍": 7633,
      "##슝": 7634,
      "##뭅": 7635,
      "##ό": 7636,
      "##δ": 7637,
      "##ト": 7638,
      "##늨": 7639,
      "##켱": 7640,
      "##튄": 7641,
      "##⛏": 7642,
      "##봘": 7643,
      "##걈": 7644,
      "##닸": 7645,
      "##걘": 7646,
      "##튭": 7647,
      "##θ": 7648,
      "##싦": 7649,
      "##옺": 7650,
      "##샄": 7651,
      "##펐": 7652,
      "##②": 7653,
      "##쟀": 7654,
      "##꿏": 7655,
      "##밞": 7656,
      "##잍": 7657,
      "##뱍": 7658,
      "##촹": 7659,
      "##ん": 7660,
      "##す": 7661,
      "##쩠": 7662,
      "##앳": 7663,
      "##탯": 7664,
      "##🚀": 7665,
      "##쳥": 7666,
      "##넛": 7667,
      "##듁": 7668,
      "##콥": 7669,
      "##닢": 7670,
      "##퀼": 7671,
      "##で": 7672,
      "##싨": 7673,
      "##쏱": 7674,
      "##잫": 7675,
      "##뭨": 7676,
      "##깢": 7677,
      "##🔺": 7678,
      "##🦀": 7679,
      "##듫": 7680,
      "##촐": 7681,
      "##욪": 7682,
      "##К": 7683,
      "##뵙": 7684,
      "##🌙": 7685,
      "##🐗": 7686,
      "##뻡": 7687,
      "##⑥": 7688,
      "##👽": 7689,
      "##👻": 7690,
      "##💣": 7691,
      "##뇐": 7692,
      "##빢": 7693,
      "##띤": 7694,
      "##п": 7695,
      "##😪": 7696,
      "##궃": 7697,
      "##얐": 7698,
      "##읻": 7699,
      "##욷": 7700,
      "##찣": 7701,
      "##윰": 7702,
      "##🦴": 7703,
      "##í": 7704,
      "##슭": 7705,
      "##킁": 7706,
      "##륀": 7707,
      "##죌": 7708,
      "##퓌": 7709,
      "##눤": 7710,
      "##볏": 7711,
      "##💸": 7712,
      "##얶": 7713,
      "##럐": 7714,
      "##륄": 7715,
      "##퍙": 7716,
      "##딥": 7717,
      "##뺴": 7718,
      "##퍠": 7719,
      "##줗": 7720,
      "##푱": 7721,
      "##👆": 7722,
      "##웽": 7723,
      "##놌": 7724,
      "##잨": 7725,
      "##㎍": 7726,
      "##닻": 7727,
      "##뤡": 7728,
      "##🍁": 7729,
      "##쯍": 7730,
      "##겢": 7731,
      "##옄": 7732,
      "##땔": 7733,
      "##츰": 7734,
      "##갉": 7735,
      "##첮": 7736,
      "##뺃": 7737,
      "##잋": 7738,
      "##れ": 7739,
      "##て": 7740,
      "##뫈": 7741,
      "##퐈": 7742,
      "##탤": 7743,
      "##똭": 7744,
      "##멌": 7745,
      "##🐎": 7746,
      "##싁": 7747,
      "##홱": 7748,
      "##끅": 7749,
      "##🎀": 7750,
      "##믁": 7751,
      "##괌": 7752,
      "##뎄": 7753,
      "##🚴": 7754,
      "##あ": 7755,
      "##し": 7756,
      "##⅓": 7757,
      "##マ": 7758,
      "##の": 7759,
      "##앂": 7760,
      "##붛": 7761,
      "##껼": 7762,
      "##낱": 7763,
      "##ㅣ": 7764,
      "##👩": 7765,
      "##ل": 7766,
      "##ن": 7767,
      "##봍": 7768,
      "##쨉": 7769,
      "##줟": 7770,
      "##싑": 7771,
      "##껫": 7772,
      "##곙": 7773,
      "##읠": 7774,
      "##잆": 7775,
      "##맍": 7776,
      "##츼": 7777,
      "##쒴": 7778,
      "##↘": 7779,
      "##샜": 7780,
      "##🐔": 7781,
      "##ي": 7782,
      "##ب": 7783,
      "##돚": 7784,
      "##🎯": 7785,
      "##좝": 7786,
      "##⑦": 7787,
      "##ラ": 7788,
      "##イ": 7789,
      "##♠": 7790,
      "##🦉": 7791,
      "##챃": 7792,
      "##쫀": 7793,
      "##④": 7794,
      "##얖": 7795,
      "##읭": 7796,
      "##죕": 7797,
      "##듐": 7798,
      "##쾨": 7799,
      "##ó": 7800,
      "##😐": 7801,
      "##큿": 7802,
      "##💐": 7803,
      "##뢴": 7804,
      "##캣": 7805,
      "##훗": 7806,
      "##냣": 7807,
      "##땝": 7808,
      "##쓔": 7809,
      "##쬭": 7810,
      "##솎": 7811,
      "##녤": 7812,
      "##댇": 7813,
      "##렣": 7814,
      "##👞": 7815,
      "##뻰": 7816,
      "##롲": 7817,
      "##쫗": 7818,
      "##궛": 7819,
      "##곗": 7820,
      "##떰": 7821,
      "##햅": 7822,
      "##팻": 7823,
      "##뜀": 7824,
      "##や": 7825,
      "##읖": 7826,
      "##씅": 7827,
      "##┼": 7828,
      "##앋": 7829,
      "##픕": 7830,
      "##⚡": 7831,
      "##😻": 7832,
      "##햘": 7833,
      "##볻": 7834,
      "##묽": 7835,
      "##쏀": 7836,
      "##읹": 7837,
      "##쌘": 7838,
      "##쨌": 7839,
      "##푠": 7840,
      "##떽": 7841,
      "##퍌": 7842,
      "##🐁": 7843,
      "##핟": 7844,
      "##눗": 7845,
      "##짗": 7846,
      "##얙": 7847,
      "##휀": 7848,
      "##뀜": 7849,
      "##⚠": 7850,
      "##봨": 7851,
      "##잟": 7852,
      "##믽": 7853,
      "##쇜": 7854,
      "##껜": 7855,
      "##🇨": 7856,
      "##🦇": 7857,
      "##お": 7858,
      "##퉜": 7859,
      "##쑴": 7860,
      "##😷": 7861,
      "##햊": 7862,
      "##댘": 7863,
      "##б": 7864,
      "##ч": 7865,
      "##펍": 7866,
      "##봥": 7867,
      "##쳑": 7868,
      "##졉": 7869,
      "##긎": 7870,
      "##읉": 7871,
      "##🔸": 7872,
      "##쁩": 7873,
      "##쓩": 7874,
      "##쉅": 7875,
      "##놉": 7876,
      "##쎘": 7877,
      "##👌": 7878,
      "##뢍": 7879,
      "##읕": 7880,
      "##뮛": 7881,
      "##쯥": 7882,
      "##춋": 7883,
      "##읔": 7884,
      "##キ": 7885,
      "##씰": 7886,
      "##짇": 7887,
      "##긇": 7888,
      "##🍆": 7889,
      "##줜": 7890,
      "##た": 7891,
      "##뇜": 7892,
      "##싲": 7893,
      "##😀": 7894,
      "##🌼": 7895,
      "##꺅": 7896,
      "##좡": 7897,
      "##좍": 7898,
      "##🐤": 7899,
      "##д": 7900,
      "##텄": 7901,
      "##Ⅲ": 7902,
      "##숏": 7903,
      "##붏": 7904,
      "##🙆": 7905,
      "##🐱": 7906,
      "##쭌": 7907,
      "##렂": 7908,
      "##앝": 7909,
      "##춴": 7910,
      "##끍": 7911,
      "##쇆": 7912,
      "##㎛": 7913,
      "##휼": 7914,
      "##슾": 7915,
      "##삻": 7916,
      "##얺": 7917,
      "##뻴": 7918,
      "##듲": 7919,
      "##✋": 7920,
      "##🥺": 7921,
      "##룔": 7922,
      "##줸": 7923,
      "##맷": 7924,
      "##こ": 7925,
      "##쥥": 7926,
      "##😧": 7927,
      "##홓": 7928,
      "##칮": 7929,
      "##틔": 7930,
      "##♡": 7931,
      "##뼤": 7932,
      "##뵐": 7933,
      "##옻": 7934,
      "##빩": 7935,
      "##걩": 7936,
      "##💎": 7937,
      "##🐣": 7938,
      "##쒹": 7939,
      "##몪": 7940,
      "##쵀": 7941,
      "##섮": 7942,
      "##풰": 7943,
      "##뒨": 7944,
      "##핻": 7945,
      "##욌": 7946,
      "##렠": 7947,
      "##욀": 7948,
      "##💫": 7949,
      "##밯": 7950,
      "##멓": 7951,
      "##딫": 7952,
      "##🙇": 7953,
      "##넖": 7954,
      "##꾿": 7955,
      "##숱": 7956,
      "##퉥": 7957,
      "##늟": 7958,
      "##닾": 7959,
      "##밪": 7960,
      "##⑷": 7961,
      "##꿧": 7962,
      "##샙": 7963,
      "##띔": 7964,
      "##짦": 7965,
      "##삮": 7966,
      "##뤽": 7967,
      "##ı": 7968,
      "##뤌": 7969,
      "##궉": 7970,
      "##📣": 7971,
      "##볘": 7972,
      "##㉰": 7973,
      "##돨": 7974,
      "##봔": 7975,
      "##ú": 7976,
      "##쉡": 7977,
      "##뫠": 7978,
      "##즥": 7979,
      "##훕": 7980,
      "##🙅": 7981,
      "##촵": 7982,
      "##졘": 7983,
      "##긷": 7984,
      "##푀": 7985,
      "##펨": 7986,
      "##💋": 7987,
      "##볐": 7988,
      "##췃": 7989,
      "##젙": 7990,
      "##숮": 7991,
      "##잚": 7992,
      "##튓": 7993,
      "##🐥": 7994,
      "##퓸": 7995,
      "##샾": 7996,
      "##↓": 7997,
      "##🎺": 7998,
      "##🔔": 7999,
      "##📢": 8000,
      "##갂": 8001,
      "##햠": 8002,
      "##끕": 8003,
      "##🎈": 8004,
      "##💦": 8005,
      "##젬": 8006,
      "##쳫": 8007,
      "##⑨": 8008,
      "##흴": 8009,
      "##쐇": 8010,
      "##돴": 8011,
      "##🐭": 8012,
      "##³": 8013,
      "##🤑": 8014,
      "##즞": 8015,
      "##갵": 8016,
      "##윷": 8017,
      "##엷": 8018,
      "##잗": 8019,
      "##🌛": 8020,
      "##똠": 8021,
      "##홤": 8022,
      "##틑": 8023,
      "##🙂": 8024,
      "##덪": 8025,
      "##곺": 8026,
      "##횬": 8027,
      "##🤛": 8028,
      "##뼛": 8029,
      "##숵": 8030,
      "##똔": 8031,
      "##롹": 8032,
      "##シ": 8033,
      "##🙈": 8034,
      "##칡": 8035,
      "##궝": 8036,
      "##🐽": 8037,
      "##👅": 8038,
      "##랳": 8039,
      "##놋": 8040,
      "##🐈": 8041,
      "##윀": 8042,
      "##얷": 8043,
      "##헴": 8044,
      "##퍈": 8045,
      "##쟨": 8046,
      "##얒": 8047,
      "##à": 8048,
      "##햝": 8049,
      "##쎆": 8050,
      "##🚩": 8051,
      "##π": 8052,
      "##ω": 8053,
      "##쏩": 8054,
      "##옼": 8055,
      "##왝": 8056,
      "##쨰": 8057,
      "##뉩": 8058,
      "##쨓": 8059,
      "##헠": 8060,
      "##ç": 8061,
      "##먾": 8062,
      "##🌈": 8063,
      "##ジ": 8064,
      "##깞": 8065,
      "##툇": 8066,
      "##㎓": 8067,
      "##わ": 8068,
      "##띱": 8069,
      "##숯": 8070,
      "##딋": 8071,
      "##뷱": 8072,
      "##🕺": 8073,
      "##닽": 8074,
      "##쏨": 8075,
      "##짒": 8076,
      "##っ": 8077,
      "##홥": 8078,
      "##だ": 8079,
      "##き": 8080,
      "##😏": 8081,
      "##뵀": 8082,
      "##ô": 8083,
      "##ㅄ": 8084,
      "##쎔": 8085,
      "##굣": 8086,
      "##갼": 8087,
      "##½": 8088,
      "##뉸": 8089,
      "##깸": 8090,
      "##챨": 8091,
      "##😙": 8092,
      "##펩": 8093,
      "##폽": 8094,
      "##쿱": 8095,
      "##옿": 8096,
      "##🌱": 8097,
      "##🌿": 8098,
      "##☎": 8099,
      "##씼": 8100,
      "##˚": 8101,
      "##듼": 8102,
      "##ロ": 8103,
      "##🚫": 8104,
      "##줒": 8105,
      "##쯕": 8106,
      "##😚": 8107,
      "##쉔": 8108,
      "##꾾": 8109,
      "##뻠": 8110,
      "##뺍": 8111,
      "##🙊": 8112,
      "##뫄": 8113,
      "##죨": 8114,
      "##쪈": 8115,
      "##흩": 8116,
      "##🥵": 8117,
      "##è": 8118,
      "##🍾": 8119,
      "##쩟": 8120,
      "##쟉": 8121,
      "##뵨": 8122,
      "##칬": 8123,
      "##햡": 8124,
      "##젇": 8125,
      "##👨": 8126,
      "##쪅": 8127,
      "##Ⅰ": 8128,
      "##괵": 8129,
      "##🌜": 8130,
      "##쭵": 8131,
      "##❄": 8132,
      "##붘": 8133,
      "##☝": 8134,
      "##줱": 8135,
      "##힣": 8136,
      "##꼳": 8137,
      "##🤫": 8138,
      "##쌧": 8139,
      "##💔": 8140,
      "##뚸": 8141,
      "##뺵": 8142,
      "##컫": 8143,
      "##맜": 8144,
      "##С": 8145,
      "##졓": 8146,
      "##쓥": 8147,
      "##ㄺ": 8148,
      "##묀": 8149,
      "##밢": 8150,
      "##🐉": 8151,
      "##◀": 8152,
      "##웛": 8153,
      "##쥭": 8154,
      "##⅔": 8155,
      "##캑": 8156,
      "##☘": 8157,
      "##㉮": 8158,
      "##⬛": 8159,
      "##뱸": 8160,
      "##😲": 8161,
      "##챕": 8162,
      "##え": 8163,
      "##앏": 8164,
      "##엪": 8165,
      "##＜": 8166,
      "##👄": 8167,
      "##콸": 8168,
      "##🐛": 8169,
      "##팤": 8170,
      "##즬": 8171,
      "##꼅": 8172,
      "##좢": 8173,
      "##촙": 8174,
      "##🎃": 8175,
      "##±": 8176,
      "##🆘": 8177,
      "##옜": 8178,
      "##🎆": 8179,
      "##✖": 8180,
      "##빍": 8181,
      "##썁": 8182,
      "##✴": 8183,
      "##좄": 8184,
      "##캘": 8185,
      "##ū": 8186,
      "##뎬": 8187,
      "##뜽": 8188,
      "##쑝": 8189,
      "##⑵": 8190,
      "##댯": 8191,
      "##オ": 8192,
      "##🙃": 8193,
      "##😕": 8194,
      "##🤓": 8195,
      "##쵼": 8196,
      "##뮐": 8197,
      "##줠": 8198,
      "##👥": 8199,
      "##👤": 8200,
      "##뒬": 8201,
      "##쟛": 8202,
      "##몼": 8203,
      "##쨀": 8204,
      "##쏼": 8205,
      "##벰": 8206,
      "##긂": 8207,
      "##벹": 8208,
      "##콱": 8209,
      "##γ": 8210,
      "##뺕": 8211,
      "##욍": 8212,
      "##큉": 8213,
      "##🍌": 8214,
      "##も": 8215,
      "##く": 8216,
      "##쒞": 8217,
      "##👟": 8218,
      "##갮": 8219,
      "##🌕": 8220,
      "##🎁": 8221,
      "##왐": 8222,
      "##죰": 8223,
      "##꿩": 8224,
      "##🍊": 8225,
      "##섘": 8226,
      "##⛔": 8227,
      "##🐺": 8228,
      "##혠": 8229,
      "##붤": 8230,
      "##볗": 8231,
      "##🍒": 8232,
      "##옐": 8233,
      "##죷": 8234,
      "##🐍": 8235,
      "##م": 8236,
      "##띈": 8237,
      "##킄": 8238,
      "##떢": 8239,
      "##켭": 8240,
      "##뻇": 8241,
      "##φ": 8242,
      "##◇": 8243,
      "##솅": 8244,
      "##캌": 8245,
      "##ⓒ": 8246,
      "##뎡": 8247,
      "##🏿": 8248,
      "##흭": 8249,
      "##읫": 8250,
      "##뚯": 8251,
      "##🔹": 8252,
      "##휑": 8253,
      "##즨": 8254,
      "##떫": 8255,
      "##됙": 8256,
      "##틉": 8257,
      "##🖐": 8258,
      "##팃": 8259,
      "##볓": 8260,
      "##☢": 8261,
      "##뷩": 8262,
      "##씞": 8263,
      "##밦": 8264,
      "##갲": 8265,
      "##さ": 8266,
      "##쯪": 8267,
      "##뚠": 8268,
      "##🐆": 8269,
      "##옭": 8270,
      "##▽": 8271,
      "##윔": 8272,
      "##헵": 8273,
      "##뒸": 8274,
      "##엡": 8275,
      "##햿": 8276,
      "##🎤": 8277,
      "##폇": 8278,
      "##ø": 8279,
      "##읶": 8280,
      "##📌": 8281,
      "##휏": 8282,
      "##곌": 8283,
      "##똫": 8284,
      "##㎒": 8285,
      "##핱": 8286,
      "##を": 8287,
      "##읿": 8288,
      "##🐧": 8289,
      "##👇": 8290,
      "##🏅": 8291,
      "##㈑": 8292,
      "##둗": 8293,
      "##퇫": 8294,
      "##✳": 8295,
      "##꽹": 8296,
      "##옰": 8297,
      "##낔": 8298,
      "##г": 8299,
      "##は": 8300,
      "##⚖": 8301,
      "##쁑": 8302,
      "##▲": 8303,
      "##▪": 8304,
      "##꿁": 8305,
      "##휙": 8306,
      "##β": 8307,
      "##뒺": 8308,
      "##맊": 8309,
      "##🏃": 8310,
      "##흣": 8311,
      "##フ": 8312,
      "##젅": 8313,
      "##뜷": 8314,
      "##П": 8315,
      "##쏵": 8316,
      "##킅": 8317,
      "##캭": 8318,
      "##퓽": 8319,
      "##💯": 8320,
      "##튿": 8321,
      "##훽": 8322,
      "##🤐": 8323,
      "##🥁": 8324,
      "##묹": 8325,
      "##👦": 8326,
      "##☣": 8327,
      "##▼": 8328,
      "##떱": 8329,
      "##붂": 8330,
      "##쎀": 8331,
      "##퍀": 8332,
      "##ウ": 8333,
      "##쌥": 8334,
      "##짲": 8335,
      "##꿑": 8336,
      "##삷": 8337,
      "##쎗": 8338,
      "##퀭": 8339,
      "##븽": 8340,
      "##욹": 8341,
      "##웸": 8342,
      "##뭠": 8343,
      "##🇼": 8344,
      "##휭": 8345,
      "##🍏": 8346,
      "##핣": 8347,
      "##뉠": 8348,
      "##꿱": 8349,
      "##땋": 8350,
      "##죻": 8351,
      "##🙉": 8352,
      "##Ⅳ": 8353,
      "##←": 8354,
      "##꽅": 8355,
      "##쫐": 8356,
      "##숼": 8357,
      "##휸": 8358,
      "##🐸": 8359,
      "##튤": 8360,
      "##⑫": 8361,
      "##ㅜ": 8362,
      "##뼌": 8363,
      "##멏": 8364,
      "##댤": 8365,
      "##붱": 8366,
      "##💤": 8367,
      "##짋": 8368,
      "##М": 8369,
      "##🧢": 8370,
      "##뷁": 8371,
      "##📛": 8372,
      "##튐": 8373,
      "##뚕": 8374,
      "##젋": 8375,
      "##휄": 8376,
      "##쎌": 8377,
      "##쟐": 8378,
      "##쌂": 8379,
      "##⑶": 8380,
      "##뭤": 8381,
      "##◎": 8382,
      "##✂": 8383,
      "##쟞": 8384,
      "##띌": 8385,
      "##꽊": 8386,
      "##🤧": 8387,
      "##🇹": 8388,
      "##꾐": 8389,
      "##ㄳ": 8390,
      "##썡": 8391,
      "##싈": 8392,
      "##━": 8393,
      "##👶": 8394,
      "##뻿": 8395,
      "##🛑": 8396,
      "##옅": 8397,
      "##씦": 8398,
      "##🤕": 8399,
      "##€": 8400,
      "##⑩": 8401,
      "##뷍": 8402,
      "##➰": 8403,
      "##É": 8404,
      "##⑧": 8405,
      "##㊗": 8406,
      "##☹": 8407,
      "##쨘": 8408,
      "##쭛": 8409,
      "##㈐": 8410,
      "##🇭": 8411,
      "##🥕": 8412,
      "##☑": 8413,
      "##🕖": 8414,
      "##묫": 8415,
      "##👁": 8416,
      "##뷘": 8417,
      "##늧": 8418,
      "##묄": 8419,
      "##쾰": 8420,
      "##㉲": 8421,
      "##↙": 8422,
      "##🌩": 8423,
      "##촴": 8424,
      "##뙇": 8425,
      "##븀": 8426,
      "##섥": 8427,
      "##젏": 8428,
      "##굷": 8429,
      "##¹": 8430,
      "##≪": 8431,
      "##Δ": 8432,
      "##얨": 8433,
      "##쯫": 8434,
      "##🩸": 8435,
      "##옯": 8436,
      "##🤡": 8437,
      "##좊": 8438,
      "##㉡": 8439,
      "##훓": 8440,
      "##㉯": 8441,
      "##뮙": 8442,
      "##☄": 8443,
      "##⑪": 8444,
      "##🔶": 8445,
      "##㉢": 8446,
      "##㉱": 8447,
      "##쾈": 8448,
      "##퉸": 8449,
      "##홑": 8450,
      "##£": 8451,
      "##으로": 8452,
      "##하는": 8453,
      "##에서": 8454,
      "##하고": 8455,
      "##들이": 8456,
      "##니다": 8457,
      "ㅋㅋ": 8458,
      "##이다": 8459,
      "##는데": 8460,
      "##다고": 8461,
      "국민": 8462,
      "아니": 8463,
      "##라고": 8464,
      "##들은": 8465,
      "사람": 8466,
      "문재": 8467,
      "##했다": 8468,
      "나라": 8469,
      "##한다": 8470,
      "##00": 8471,
      "우리": 8472,
      "일본": 8473,
      "##하면": 8474,
      "##는거": 8475,
      "##으면": 8476,
      "##까지": 8477,
      "있다": 8478,
      "한국": 8479,
      "중국": 8480,
      "##해서": 8481,
      "##지만": 8482,
      "##통령": 8483,
      "생각": 8484,
      "##에게": 8485,
      "대한": 8486,
      "##이라": 8487,
      "이런": 8488,
      "하는": 8489,
      "##하게": 8490,
      "##하지": 8491,
      "문재인": 8492,
      "진짜": 8493,
      "있는": 8494,
      "##다는": 8495,
      "##이나": 8496,
      "지금": 8497,
      "##리고": 8498,
      "대통령": 8499,
      "##나라": 8500,
      "##대로": 8501,
      "##니까": 8502,
      "##하다": 8503,
      "##부터": 8504,
      "##렇게": 8505,
      "##세요": 8506,
      "조국": 8507,
      "##하여": 8508,
      "북한": 8509,
      "##ㅋㅋ": 8510,
      "##면서": 8511,
      "##었다": 8512,
      "정부": 8513,
      "##인데": 8514,
      "민주": 8515,
      "##해야": 8516,
      "20": 8517,
      "정치": 8518,
      "##적으로": 8519,
      "##민국": 8520,
      "그냥": 8521,
      "같은": 8522,
      "미국": 8523,
      "##이고": 8524,
      "ㅋㅋㅋ": 8525,
      "##해라": 8526,
      "문제": 8527,
      "##네요": 8528,
      "하고": 8529,
      "##보다": 8530,
      "##한테": 8531,
      "대한민국": 8532,
      "그러": 8533,
      "##구나": 8534,
      "##적인": 8535,
      "인간": 8536,
      "##레기": 8537,
      "##습니다": 8538,
      "이제": 8539,
      "##에는": 8540,
      "##라도": 8541,
      "##같은": 8542,
      "그래": 8543,
      "한다": 8544,
      "##들의": 8545,
      "아닌": 8546,
      "정신": 8547,
      "##주의": 8548,
      "##어서": 8549,
      "##는게": 8550,
      "그런": 8551,
      "경제": 8552,
      "검찰": 8553,
      "모르": 8554,
      "정말": 8555,
      "만들": 8556,
      "##리는": 8557,
      "##이지": 8558,
      "##겠다": 8559,
      "19": 8560,
      "##려고": 8561,
      "##들아": 8562,
      "##사람": 8563,
      "무슨": 8564,
      "하나": 8565,
      "##합니다": 8566,
      "너무": 8567,
      "민주당": 8568,
      "##들을": 8569,
      "정권": 8570,
      "##야지": 8571,
      "댓글": 8572,
      "##자가": 8573,
      "##입니다": 8574,
      "지지": 8575,
      "10": 8576,
      "없는": 8577,
      "국가": 8578,
      "##처럼": 8579,
      "##으니": 8580,
      "없다": 8581,
      "##인가": 8582,
      "기사": 8583,
      "##라는": 8584,
      "##이냐": 8585,
      "##문에": 8586,
      "##소리": 8587,
      "##OO": 8588,
      "##이라고": 8589,
      "다른": 8590,
      "##하기": 8591,
      "들어": 8592,
      "##지고": 8593,
      "자기": 8594,
      "##이가": 8595,
      "저런": 8596,
      "문재앙": 8597,
      "하지": 8598,
      "아무": 8599,
      "그리고": 8600,
      "##인이": 8601,
      "##지는": 8602,
      "서울": 8603,
      "우리나라": 8604,
      "세금": 8605,
      "##되는": 8606,
      "##한당": 8607,
      "사실": 8608,
      "##것도": 8609,
      "201": 8610,
      "이상": 8611,
      "얼마": 8612,
      "이게": 8613,
      "##하네": 8614,
      "##들도": 8615,
      "아니라": 8616,
      "좌파": 8617,
      "어떻": 8618,
      "자유": 8619,
      "자한당": 8620,
      "아직": 8621,
      "##아서": 8622,
      "##이네": 8623,
      "그렇게": 8624,
      "##지도": 8625,
      "사건": 8626,
      "##에도": 8627,
      "쓰레기": 8628,
      "어디": 8629,
      "##된다": 8630,
      "잘못": 8631,
      "이번": 8632,
      "##갱이": 8633,
      "##겠지": 8634,
      "조선": 8635,
      "##자는": 8636,
      "어떻게": 8637,
      "사회": 8638,
      "##는지": 8639,
      "당신": 8640,
      "제발": 8641,
      "##가리": 8642,
      "##어야": 8643,
      "##말고": 8644,
      "OOO": 8645,
      "##였다": 8646,
      "##정부": 8647,
      "많이": 8648,
      "##잖아": 8649,
      "##가는": 8650,
      "누가": 8651,
      "국회": 8652,
      "나오": 8653,
      "##기를": 8654,
      "필요": 8655,
      "200": 8656,
      "언론": 8657,
      "##이는": 8658,
      "##하냐": 8659,
      "##았다": 8660,
      "##자들": 8661,
      "##이야": 8662,
      "##인지": 8663,
      "이유": 8664,
      "이렇게": 8665,
      "##천지": 8666,
      "모두": 8667,
      "##시키": 8668,
      "##는다": 8669,
      "##해도": 8670,
      "##정권": 8671,
      "보고": 8672,
      "##근혜": 8673,
      "##하나": 8674,
      "##스크": 8675,
      "##다가": 8676,
      "##로나": 8677,
      "##놓고": 8678,
      "##의원": 8679,
      "그럼": 8680,
      "##기는": 8681,
      "위해": 8682,
      "##없는": 8683,
      "##기에": 8684,
      "##리가": 8685,
      "다시": 8686,
      "피고": 8687,
      "했다": 8688,
      "##있는": 8689,
      "그만": 8690,
      "빨갱이": 8691,
      "##시다": 8692,
      "아이": 8693,
      "피해": 8694,
      "##어요": 8695,
      "##더니": 8696,
      "##정은": 8697,
      "##하는거": 8698,
      "##한거": 8699,
      "수사": 8700,
      "##리를": 8701,
      "수준": 8702,
      "모든": 8703,
      "지난": 8704,
      "##어도": 8705,
      "얼마나": 8706,
      "친일": 8707,
      "조사": 8708,
      "사람이": 8709,
      "인정": 8710,
      "##보고": 8711,
      "이미": 8712,
      "##하면서": 8713,
      "자신": 8714,
      "코로나": 8715,
      "ㅉㅉ": 8716,
      "살아": 8717,
      "##와대": 8718,
      "계속": 8719,
      "신천지": 8720,
      "돌아": 8721,
      "다음": 8722,
      "박근혜": 8723,
      "보수": 8724,
      "##국민": 8725,
      "##하는데": 8726,
      "공산": 8727,
      "##돼지": 8728,
      "제대로": 8729,
      "많은": 8730,
      "거짓": 8731,
      "##을까": 8732,
      "것이": 8733,
      "##기가": 8734,
      "국민들": 8735,
      "##하며": 8736,
      "정의": 8737,
      "해야": 8738,
      "선거": 8739,
      "내가": 8740,
      "받아": 8741,
      "아니고": 8742,
      "마스크": 8743,
      "##거리": 8744,
      "이해": 8745,
      "청와대": 8746,
      "세계": 8747,
      "기업": 8748,
      "세상": 8749,
      "100": 8750,
      "##거나": 8751,
      "##가서": 8752,
      "##성이": 8753,
      "좋은": 8754,
      "경찰": 8755,
      "시작": 8756,
      "##가지": 8757,
      "따라": 8758,
      "##봐라": 8759,
      "나라가": 8760,
      "선동": 8761,
      "##주고": 8762,
      "같이": 8763,
      "때문에": 8764,
      "##만원": 8765,
      "##들어": 8766,
      "안되": 8767,
      "##장이": 8768,
      "여자": 8769,
      "보면": 8770,
      "역시": 8771,
      "좋아": 8772,
      "상황": 8773,
      "##정도": 8774,
      "하면": 8775,
      "탄핵": 8776,
      "30": 8777,
      "ㅎㅎ": 8778,
      "##없이": 8779,
      "12": 8780,
      "소리": 8781,
      "것이다": 8782,
      "근데": 8783,
      "##이면": 8784,
      "아베": 8785,
      "누구": 8786,
      "미친": 8787,
      "경우": 8788,
      "정도": 8789,
      "##나요": 8790,
      "##는건": 8791,
      "말고": 8792,
      "니가": 8793,
      "이건": 8794,
      "##사가": 8795,
      "##기도": 8796,
      "책임": 8797,
      "##구만": 8798,
      "##하자": 8799,
      "##겠네": 8800,
      "##어나": 8801,
      "이용": 8802,
      "조작": 8803,
      "것으로": 8804,
      "니들": 8805,
      "원고": 8806,
      "##에서는": 8807,
      "##한다고": 8808,
      "##으며": 8809,
      "대표": 8810,
      "##러운": 8811,
      "아직도": 8812,
      "아닌가": 8813,
      "제1": 8814,
      "##기업": 8815,
      "알고": 8816,
      "있었": 8817,
      "대구": 8818,
      "결국": 8819,
      "##마라": 8820,
      "지역": 8821,
      "##하라": 8822,
      "18": 8823,
      "##수가": 8824,
      "##새끼": 8825,
      "이러": 8826,
      "##이라도": 8827,
      "##원이": 8828,
      "대깨": 8829,
      "##시켜": 8830,
      "아주": 8831,
      "범죄": 8832,
      "바로": 8833,
      "##사는": 8834,
      "##들에게": 8835,
      "##같이": 8836,
      "그래서": 8837,
      "##다니": 8838,
      "말이": 8839,
      "##사를": 8840,
      "좌빨": 8841,
      "한번": 8842,
      "언제": 8843,
      "개돼지": 8844,
      "여기": 8845,
      "사이": 8846,
      "##주는": 8847,
      "##이라는": 8848,
      "##시간": 8849,
      "가장": 8850,
      "가족": 8851,
      "해라": 8852,
      "##도록": 8853,
      "그렇": 8854,
      "대깨문": 8855,
      "가능": 8856,
      "삼성": 8857,
      "당연": 8858,
      "한심": 8859,
      "##하니": 8860,
      "부모": 8861,
      "##아니": 8862,
      "##보면": 8863,
      "만들어": 8864,
      "##이랑": 8865,
      "그게": 8866,
      "##하시": 8867,
      "사용": 8868,
      "사람들": 8869,
      "##치고": 8870,
      "방송": 8871,
      "##것이": 8872,
      "##없다": 8873,
      "##전에": 8874,
      "반대": 8875,
      "김정은": 8876,
      "자식": 8877,
      "기자": 8878,
      "어떤": 8879,
      "##장을": 8880,
      "아니다": 8881,
      "장관": 8882,
      "##먹고": 8883,
      "##거다": 8884,
      "떨어": 8885,
      "##당이": 8886,
      "시간": 8887,
      "함께": 8888,
      "11": 8889,
      "새끼": 8890,
      "##치는": 8891,
      "##스트": 8892,
      "완전": 8893,
      "국민이": 8894,
      "무능": 8895,
      "##지가": 8896,
      "##더라": 8897,
      "없어": 8898,
      "총선": 8899,
      "재앙": 8900,
      "##텐데": 8901,
      "##던데": 8902,
      "지원": 8903,
      "##장은": 8904,
      "##0년": 8905,
      "##아야": 8906,
      "마음": 8907,
      "##인들": 8908,
      "절대": 8909,
      "뭐가": 8910,
      "##어라": 8911,
      "보여": 8912,
      "##동안": 8913,
      "##체가": 8914,
      "##하는게": 8915,
      "##중에": 8916,
      "있는데": 8917,
      "##인의": 8918,
      "##라이": 8919,
      "##무원": 8920,
      "토착": 8921,
      "정상": 8922,
      "##장관": 8923,
      "것은": 8924,
      "##지를": 8925,
      "##되고": 8926,
      "니들이": 8927,
      "황교": 8928,
      "위한": 8929,
      "국회의원": 8930,
      "##시민": 8931,
      "이후": 8932,
      "15": 8933,
      "빨리": 8934,
      "가짜": 8935,
      "관련": 8936,
      "##이니": 8937,
      "국민들이": 8938,
      "##일보": 8939,
      "된다": 8940,
      "세월": 8941,
      "없고": 8942,
      "보내": 8943,
      "국민을": 8944,
      "사고": 8945,
      "여론": 8946,
      "##주세요": 8947,
      "##와서": 8948,
      "##력을": 8949,
      "##지않": 8950,
      "먼저": 8951,
      "##인은": 8952,
      "##자를": 8953,
      "나라를": 8954,
      "##력이": 8955,
      "판단": 8956,
      "결과": 8957,
      "##스로": 8958,
      "공개": 8959,
      "있을": 8960,
      "최고": 8961,
      "요즘": 8962,
      "##거지": 8963,
      "##졌다": 8964,
      "더불": 8965,
      "같다": 8966,
      "##있다": 8967,
      "구속": 8968,
      "독재": 8969,
      "외국": 8970,
      "사기": 8971,
      "라고": 8972,
      "##겠냐": 8973,
      "##되어": 8974,
      "##스럽": 8975,
      "전라도": 8976,
      "##럼프": 8977,
      "적폐": 8978,
      "어느": 8979,
      "##는거지": 8980,
      "관계": 8981,
      "국내": 8982,
      "또는": 8983,
      "남자": 8984,
      "전부": 8985,
      "중요": 8986,
      "##정을": 8987,
      "현재": 8988,
      "##운동": 8989,
      "하지만": 8990,
      "##리지": 8991,
      "대해": 8992,
      "##것들": 8993,
      "일반": 8994,
      "교육": 8995,
      "되는": 8996,
      "##이상": 8997,
      "사람들이": 8998,
      "트럼프": 8999,
      "정책": 9000,
      "영화": 9001,
      "이거": 9002,
      "너희": 9003,
      "##이란": 9004,
      "도대": 9005,
      "##시아": 9006,
      "현실": 9007,
      "##대통령": 9008,
      "국민의": 9009,
      "##머니": 9010,
      "##시고": 9011,
      "이어": 9012,
      "거짓말": 9013,
      "세월호": 9014,
      "##려라": 9015,
      "##려는": 9016,
      "입국": 9017,
      "앞으로": 9018,
      "##가고": 9019,
      "합니다": 9020,
      "증거": 9021,
      "외교": 9022,
      "##대표": 9023,
      "그리": 9024,
      "##조건": 9025,
      "달창": 9026,
      "사업": 9027,
      "##왜구": 9028,
      "##아라": 9029,
      "이야": 9030,
      "도대체": 9031,
      "처벌": 9032,
      "안보": 9033,
      "모습": 9034,
      "##ㅋㅋㅋ": 9035,
      "##명이": 9036,
      "말했다": 9037,
      "##때문에": 9038,
      "지들": 9039,
      "것을": 9040,
      "처음": 9041,
      "##자리": 9042,
      "없이": 9043,
      "##하였다": 9044,
      "주장": 9045,
      "있고": 9046,
      "50": 9047,
      "##성을": 9048,
      "대통령이": 9049,
      "그래도": 9050,
      "##드는": 9051,
      "아님": 9052,
      "##밖에": 9053,
      "하루": 9054,
      "아니면": 9055,
      "##놈들": 9056,
      "##민주": 9057,
      "얼굴": 9058,
      "힘들": 9059,
      "못한": 9060,
      "##건데": 9061,
      "오늘": 9062,
      "##지말고": 9063,
      "##심이": 9064,
      "사과": 9065,
      "##하였": 9066,
      "##되면": 9067,
      "하여": 9068,
      "##학교": 9069,
      "내려": 9070,
      "뉴스": 9071,
      "걱정": 9072,
      "의원": 9073,
      "있어": 9074,
      "통해": 9075,
      "여러": 9076,
      "행동": 9077,
      "공무원": 9078,
      "이름": 9079,
      "##당은": 9080,
      "응원": 9081,
      "##위원": 9082,
      "시키": 9083,
      "전쟁": 9084,
      "기록": 9085,
      "얘기": 9086,
      "##됐다": 9087,
      "이젠": 9088,
      "일부": 9089,
      "##정한": 9090,
      "##하던": 9091,
      "내용": 9092,
      "##므로": 9093,
      "##했는데": 9094,
      "시민": 9095,
      "##했다고": 9096,
      "가지고": 9097,
      "##대가": 9098,
      "하는데": 9099,
      "당시": 9100,
      "##하겠": 9101,
      "25": 9102,
      "##자의": 9103,
      "해도": 9104,
      "어쩌": 9105,
      "무조건": 9106,
      "##개혁": 9107,
      "미래": 9108,
      "나경": 9109,
      "제2": 9110,
      "##조사": 9111,
      "대단": 9112,
      "##뉴스": 9113,
      "##렸다": 9114,
      "검사": 9115,
      "##혔다": 9116,
      "##에서도": 9117,
      "이라고": 9118,
      "##들과": 9119,
      "다니": 9120,
      "##국가": 9121,
      "그걸": 9122,
      "해외": 9123,
      "우리가": 9124,
      "나온": 9125,
      "##동산": 9126,
      "##기로": 9127,
      "토착왜구": 9128,
      "##것이다": 9129,
      "황교안": 9130,
      "##부분": 9131,
      "더불어": 9132,
      "판결": 9133,
      "해결": 9134,
      "않는": 9135,
      "##정에": 9136,
      "##대는": 9137,
      "않고": 9138,
      "##이었": 9139,
      "어찌": 9140,
      "##기고": 9141,
      "법무": 9142,
      "이를": 9143,
      "모르는": 9144,
      "나도": 9145,
      "정부가": 9146,
      "##하세요": 9147,
      "머리": 9148,
      "엄청": 9149,
      "프로": 9150,
      "여성": 9151,
      "##려면": 9152,
      "불법": 9153,
      "개인": 9154,
      "만든": 9155,
      "##대한": 9156,
      "있다고": 9157,
      "문죄": 9158,
      "아니냐": 9159,
      "##건가": 9160,
      "집단": 9161,
      "##보니": 9162,
      "##자들이": 9163,
      "않은": 9164,
      "사진": 9165,
      "##리면": 9166,
      "기레기": 9167,
      "##르고": 9168,
      "##해야지": 9169,
      "##로운": 9170,
      "받고": 9171,
      "##한데": 9172,
      "이날": 9173,
      "나는": 9174,
      "아무리": 9175,
      "촛불": 9176,
      "##받고": 9177,
      "##할수": 9178,
      "##마다": 9179,
      "부동산": 9180,
      "역사": 9181,
      "감독": 9182,
      "##진다": 9183,
      "##했던": 9184,
      "먹고": 9185,
      "니네": 9186,
      "##상을": 9187,
      "회사": 9188,
      "개혁": 9189,
      "그런데": 9190,
      "해서": 9191,
      "밝혔다": 9192,
      "어려": 9193,
      "지랄": 9194,
      "경기": 9195,
      "##인을": 9196,
      "나쁜": 9197,
      "##경제": 9198,
      "때문": 9199,
      "윤석": 9200,
      "##인다": 9201,
      "학교": 9202,
      "대학": 9203,
      "##식이": 9204,
      "넘어": 9205,
      "권력": 9206,
      "##아먹": 9207,
      "##일이": 9208,
      "하는거": 9209,
      "대가리": 9210,
      "##상이": 9211,
      "##생각": 9212,
      "##자로": 9213,
      "##프로": 9214,
      "저렇게": 9215,
      "##정이": 9216,
      "진행": 9217,
      "일베": 9218,
      "##내고": 9219,
      "199": 9220,
      "##간다": 9221,
      "스스로": 9222,
      "특히": 9223,
      "않았": 9224,
      "전문": 9225,
      "지나": 9226,
      "직접": 9227,
      "가서": 9228,
      "##린다": 9229,
      "국제": 9230,
      "##으나": 9231,
      "##난다": 9232,
      "##레이": 9233,
      "문재인이": 9234,
      "에서": 9235,
      "친일파": 9236,
      "##드시": 9237,
      "##라지": 9238,
      "관심": 9239,
      "##끼리": 9240,
      "##것들이": 9241,
      "평화": 9242,
      "학생": 9243,
      "이래": 9244,
      "지지율": 9245,
      "시장": 9246,
      "말을": 9247,
      "중국인": 9248,
      "공수": 9249,
      "##제로": 9250,
      "과거": 9251,
      "##남불": 9252,
      "의료": 9253,
      "##려서": 9254,
      "##되었": 9255,
      "나경원": 9256,
      "부끄": 9257,
      "##건지": 9258,
      "그는": 9259,
      "##들고": 9260,
      "진보": 9261,
      "##으면서": 9262,
      "지켜": 9263,
      "그러나": 9264,
      "##로남불": 9265,
      "부정": 9266,
      "##아요": 9267,
      "##적이": 9268,
      "사람은": 9269,
      "##대가리": 9270,
      "일본이": 9271,
      "##이버": 9272,
      "올라": 9273,
      "##해주": 9274,
      "못하는": 9275,
      "##들만": 9276,
      "##라면": 9277,
      "이나라": 9278,
      "사는": 9279,
      "결혼": 9280,
      "##심히": 9281,
      "서민": 9282,
      "투표": 9283,
      "문제가": 9284,
      "기술": 9285,
      "##러스": 9286,
      "13": 9287,
      "##000": 9288,
      "진실": 9289,
      "인터": 9290,
      "교수": 9291,
      "##거야": 9292,
      "것도": 9293,
      "맞는": 9294,
      "확실": 9295,
      "##위를": 9296,
      "사랑": 9297,
      "안타": 9298,
      "전세": 9299,
      "16": 9300,
      "난리": 9301,
      "##나서": 9302,
      "##인간": 9303,
      "매국": 9304,
      "##되었다": 9305,
      "알바": 9306,
      "40": 9307,
      "공수처": 9308,
      "찾아": 9309,
      "알려": 9310,
      "팩트": 9311,
      "##대를": 9312,
      "##것은": 9313,
      "14": 9314,
      "##한게": 9315,
      "부분": 9316,
      "##다면": 9317,
      "##단체": 9318,
      "기준": 9319,
      "보다": 9320,
      "더러운": 9321,
      "무식": 9322,
      "본인": 9323,
      "임명": 9324,
      "제일": 9325,
      "정당": 9326,
      "밝혀": 9327,
      "서로": 9328,
      "공부": 9329,
      "불쌍": 9330,
      "포함": 9331,
      "##르면": 9332,
      "##나오": 9333,
      "가지": 9334,
      "해당": 9335,
      "##란다": 9336,
      "확인": 9337,
      "##봐야": 9338,
      "정신차": 9339,
      "조국이": 9340,
      "##하다고": 9341,
      "애들": 9342,
      "##는거야": 9343,
      "##사일": 9344,
      "##은이": 9345,
      "선수": 9346,
      "감사": 9347,
      "발생": 9348,
      "배우": 9349,
      "##었는데": 9350,
      "##고있": 9351,
      "같은데": 9352,
      "##조작": 9353,
      "못하고": 9354,
      "##을때": 9355,
      "##르는": 9356,
      "##장에서": 9357,
      "열심히": 9358,
      "있나": 9359,
      "##국에": 9360,
      "##했고": 9361,
      "등을": 9362,
      "가만": 9363,
      "##기사": 9364,
      "밖에": 9365,
      "안되는": 9366,
      "나이": 9367,
      "있네": 9368,
      "##나는": 9369,
      "##리아": 9370,
      "발표": 9371,
      "교회": 9372,
      "그때": 9373,
      "##지지": 9374,
      "##보자": 9375,
      "대체": 9376,
      "어린": 9377,
      "##도가": 9378,
      "무시": 9379,
      "비교": 9380,
      "인생": 9381,
      "##원을": 9382,
      "우한": 9383,
      "##파트": 9384,
      "반일": 9385,
      "솔직": 9386,
      "##한국": 9387,
      "멍청": 9388,
      "투자": 9389,
      "##리에": 9390,
      "##명을": 9391,
      "종교": 9392,
      "이명": 9393,
      "기본": 9394,
      "인권": 9395,
      "바이": 9396,
      "거지": 9397,
      "존재": 9398,
      "개소리": 9399,
      "어디서": 9400,
      "준비": 9401,
      "17": 9402,
      "비판": 9403,
      "노무": 9404,
      "나가": 9405,
      "대부분": 9406,
      "방법": 9407,
      "관한": 9408,
      "한국당": 9409,
      "반드시": 9410,
      "드러": 9411,
      "기회": 9412,
      "##더라도": 9413,
      "하면서": 9414,
      "##시는": 9415,
      "또한": 9416,
      "##관계": 9417,
      "##할때": 9418,
      "##수도": 9419,
      "##지면": 9420,
      "##것을": 9421,
      "조용": 9422,
      "조금": 9423,
      "돼지": 9424,
      "네이버": 9425,
      "틀딱": 9426,
      "##년에": 9427,
      "##바리": 9428,
      "##야한다": 9429,
      "되어": 9430,
      "있으면": 9431,
      "잡아": 9432,
      "##되지": 9433,
      "있다는": 9434,
      "재판": 9435,
      "##세먼": 9436,
      "지급": 9437,
      "유시민": 9438,
      "##식으로": 9439,
      "운동": 9440,
      "##이팅": 9441,
      "운영": 9442,
      "##조선": 9443,
      "당장": 9444,
      "##치를": 9445,
      "바보": 9446,
      "대하여": 9447,
      "##금지": 9448,
      "##수를": 9449,
      "원래": 9450,
      "##만큼": 9451,
      "내로남불": 9452,
      "치료": 9453,
      "##금을": 9454,
      "문빠": 9455,
      "살인": 9456,
      "변호": 9457,
      "이재": 9458,
      "사망": 9459,
      "##에선": 9460,
      "##정신": 9461,
      "시켜": 9462,
      "수도": 9463,
      "민주주의": 9464,
      "##마디": 9465,
      "친구": 9466,
      "뻔뻔": 9467,
      "의미": 9468,
      "있지": 9469,
      "이라": 9470,
      "없애": 9471,
      "가격": 9472,
      "받은": 9473,
      "정부는": 9474,
      "보는": 9475,
      "이명박": 9476,
      "오후": 9477,
      "나서": 9478,
      "국민들은": 9479,
      "사형": 9480,
      "개발": 9481,
      "##대에": 9482,
      "##원은": 9483,
      "사퇴": 9484,
      "위해서": 9485,
      "##한다는": 9486,
      "다들": 9487,
      "##국이": 9488,
      "##이트": 9489,
      "불매": 9490,
      "보니": 9491,
      "##겠지만": 9492,
      "##문제": 9493,
      "##지마라": 9494,
      "##차피": 9495,
      "부산": 9496,
      "##워서": 9497,
      "##히려": 9498,
      "나왔": 9499,
      "알아": 9500,
      "간첩": 9501,
      "너네": 9502,
      "##의를": 9503,
      "노무현": 9504,
      "무서": 9505,
      "선택": 9506,
      "혼자": 9507,
      "##화를": 9508,
      "궁금": 9509,
      "##원에": 9510,
      "##선거": 9511,
      "##시장": 9512,
      "##보네": 9513,
      "##라서": 9514,
      "거의": 9515,
      "자신의": 9516,
      "짱깨": 9517,
      "어차피": 9518,
      "000": 9519,
      "오히려": 9520,
      "월급": 9521,
      "이에": 9522,
      "##던가": 9523,
      "최저": 9524,
      "검찰개혁": 9525,
      "여행": 9526,
      "거기": 9527,
      "결정": 9528,
      "감염": 9529,
      "##위에": 9530,
      "광주": 9531,
      "무엇": 9532,
      "##는거다": 9533,
      "말도": 9534,
      "양심": 9535,
      "연구": 9536,
      "보이": 9537,
      "주변": 9538,
      "독립": 9539,
      "##보는": 9540,
      "생각이": 9541,
      "정신병": 9542,
      "##라리": 9543,
      "##도를": 9544,
      "윤석열": 9545,
      "##5년": 9546,
      "공산주의": 9547,
      "아들": 9548,
      "제3": 9549,
      "법무부": 9550,
      "싶다": 9551,
      "일본은": 9552,
      "노동": 9553,
      "그동안": 9554,
      "##권을": 9555,
      "있으니": 9556,
      "이기": 9557,
      "관리": 9558,
      "당연히": 9559,
      "현대": 9560,
      "##사회": 9561,
      "확진": 9562,
      "공산당": 9563,
      "안전": 9564,
      "미세먼": 9565,
      "기대": 9566,
      "도움": 9567,
      "##수는": 9568,
      "있냐": 9569,
      "설치": 9570,
      "하네": 9571,
      "반성": 9572,
      "198": 9573,
      "아는": 9574,
      "도와": 9575,
      "안하고": 9576,
      "사회주의": 9577,
      "##하라고": 9578,
      "##아닌": 9579,
      "가짜뉴스": 9580,
      "조선일보": 9581,
      "뭐냐": 9582,
      "모르고": 9583,
      "해야지": 9584,
      "사라": 9585,
      "##순실": 9586,
      "인간이": 9587,
      "평생": 9588,
      "봐라": 9589,
      "의혹": 9590,
      "기억": 9591,
      "##져라": 9592,
      "물론": 9593,
      "있습니다": 9594,
      "그러니": 9595,
      "##수준": 9596,
      "최근": 9597,
      "지키": 9598,
      "한다고": 9599,
      "재산": 9600,
      "##비스": 9601,
      "수출": 9602,
      "##났다": 9603,
      "##학생": 9604,
      "올해": 9605,
      "마라": 9606,
      "일이": 9607,
      "##가요": 9608,
      "##해보": 9609,
      "능력": 9610,
      "되었": 9611,
      "##거든": 9612,
      "내년": 9613,
      "솔직히": 9614,
      "사법": 9615,
      "##거라": 9616,
      "##기관": 9617,
      "자격": 9618,
      "안된다": 9619,
      "##겁니다": 9620,
      "##같다": 9621,
      "의사": 9622,
      "이야기": 9623,
      "위험": 9624,
      "##으니까": 9625,
      "##하지만": 9626,
      "사람들은": 9627,
      "##시키고": 9628,
      "##서는": 9629,
      "조선족": 9630,
      "##아치": 9631,
      "있음": 9632,
      "지방": 9633,
      "종북": 9634,
      "원심": 9635,
      "이유가": 9636,
      "다르": 9637,
      "##식을": 9638,
      "요구": 9639,
      "##만이": 9640,
      "##구요": 9641,
      "차라리": 9642,
      "##사업": 9643,
      "##가가": 9644,
      "공격": 9645,
      "##6년": 9646,
      "분명": 9647,
      "전혀": 9648,
      "##도로": 9649,
      "국정": 9650,
      "국민은": 9651,
      "##해요": 9652,
      "신경": 9653,
      "최소": 9654,
      "##수있": 9655,
      "활동": 9656,
      "성공": 9657,
      "강남": 9658,
      "지금은": 9659,
      "의하여": 9660,
      "출신": 9661,
      "2년": 9662,
      "야당": 9663,
      "##나고": 9664,
      "싫어": 9665,
      "##이라면": 9666,
      "##8년": 9667,
      "으로": 9668,
      "있었다": 9669,
      "##려야": 9670,
      "##정희": 9671,
      "지가": 9672,
      "##랜드": 9673,
      "##2년": 9674,
      "미사일": 9675,
      "항상": 9676,
      "설명": 9677,
      "건강": 9678,
      "가는": 9679,
      "이하": 9680,
      "니들은": 9681,
      "##교육": 9682,
      "진심": 9683,
      "21": 9684,
      "전체": 9685,
      "엄마": 9686,
      "인간들": 9687,
      "##자나": 9688,
      "중앙": 9689,
      "아파트": 9690,
      "##7년": 9691,
      "##개월": 9692,
      "보호": 9693,
      "##지로": 9694,
      "보도": 9695,
      "##져야": 9696,
      "자꾸": 9697,
      "##이들": 9698,
      "##겠다고": 9699,
      "##가를": 9700,
      "##사건": 9701,
      "부터": 9702,
      "의한": 9703,
      "대응": 9704,
      "있어서": 9705,
      "기부": 9706,
      "##랍니다": 9707,
      "##고싶": 9708,
      "상대": 9709,
      "했는데": 9710,
      "정보": 9711,
      "표현": 9712,
      "인사": 9713,
      "계획": 9714,
      "나와": 9715,
      "생산": 9716,
      "심판": 9717,
      "라는": 9718,
      "##시길": 9719,
      "신고": 9720,
      "태극": 9721,
      "돈을": 9722,
      "최순실": 9723,
      "##없고": 9724,
      "역대": 9725,
      "##거냐": 9726,
      "기다": 9727,
      "##내는": 9728,
      "정치인": 9729,
      "자살": 9730,
      "##장에": 9731,
      "대변": 9732,
      "##말이": 9733,
      "좋겠다": 9734,
      "##시대": 9735,
      "않는다": 9736,
      "문재인은": 9737,
      "한심한": 9738,
      "나타": 9739,
      "그럴": 9740,
      "##자고": 9741,
      "지들이": 9742,
      "장난": 9743,
      "우리는": 9744,
      "맨날": 9745,
      "##4년": 9746,
      "공정": 9747,
      "##분이": 9748,
      "##놈이": 9749,
      "##시에": 9750,
      "유지": 9751,
      "일단": 9752,
      "노조": 9753,
      "청구": 9754,
      "##나면": 9755,
      "놈들": 9756,
      "##우는": 9757,
      "##노총": 9758,
      "노력": 9759,
      "##는거냐": 9760,
      "##님이": 9761,
      "화이팅": 9762,
      "그대로": 9763,
      "의견": 9764,
      "##가면": 9765,
      "##자들은": 9766,
      "지난해": 9767,
      "##3년": 9768,
      "##까요": 9769,
      "말하는": 9770,
      "후보": 9771,
      "##들이다": 9772,
      "군대": 9773,
      "받을": 9774,
      "알았": 9775,
      "가진": 9776,
      "##우고": 9777,
      "한마디": 9778,
      "판매": 9779,
      "##바로": 9780,
      "애국": 9781,
      "영향": 9782,
      "하냐": 9783,
      "이제는": 9784,
      "몰아": 9785,
      "##지게": 9786,
      "##가지고": 9787,
      "그거": 9788,
      "끝까지": 9789,
      "##점을": 9790,
      "동안": 9791,
      "##들한테": 9792,
      "소득": 9793,
      "없었": 9794,
      "운전": 9795,
      "심각": 9796,
      "적용": 9797,
      "일을": 9798,
      "##위원회": 9799,
      "##문회": 9800,
      "민족": 9801,
      "고생": 9802,
      "끌어": 9803,
      "##두고": 9804,
      "아마": 9805,
      "집회": 9806,
      "매국노": 9807,
      "##상도": 9808,
      "되고": 9809,
      "이익": 9810,
      "부담": 9811,
      "싶은": 9812,
      "일제": 9813,
      "하다": 9814,
      "승리": 9815,
      "피해자": 9816,
      "상태": 9817,
      "열린": 9818,
      "##지요": 9819,
      "박정희": 9820,
      "자리": 9821,
      "참여": 9822,
      "아버": 9823,
      "대선": 9824,
      "##사고": 9825,
      "없네": 9826,
      "저러": 9827,
      "24": 9828,
      "나올": 9829,
      "그나": 9830,
      "##수사": 9831,
      "##회사": 9832,
      "주식": 9833,
      "문통": 9834,
      "##지에": 9835,
      "게임": 9836,
      "##어야지": 9837,
      "아냐": 9838,
      "생활": 9839,
      "발전": 9840,
      "##정책": 9841,
      "하는게": 9842,
      "통일": 9843,
      "지도": 9844,
      "##당한": 9845,
      "##부는": 9846,
      "##이를": 9847,
      "손해": 9848,
      "쪽바리": 9849,
      "상고": 9850,
      "할머니": 9851,
      "##이며": 9852,
      "본다": 9853,
      "전세계": 9854,
      "비난": 9855,
      "##인거": 9856,
      "비리": 9857,
      "미국이": 9858,
      "바이러스": 9859,
      "##지원": 9860,
      "두고": 9861,
      "문죄인": 9862,
      "##만에": 9863,
      "##집단": 9864,
      "시즌": 9865,
      "대한민국의": 9866,
      "##에요": 9867,
      "##겠다는": 9868,
      "##er": 9869,
      "##먹는": 9870,
      "너는": 9871,
      "##동차": 9872,
      "러시아": 9873,
      "그건": 9874,
      "##른다": 9875,
      "##이었다": 9876,
      "까지": 9877,
      "##수록": 9878,
      "##임금": 9879,
      "등의": 9880,
      "집값": 9881,
      "##으로서": 9882,
      "판사": 9883,
      "자체가": 9884,
      "감옥": 9885,
      "바뀌": 9886,
      "##9년": 9887,
      "연예": 9888,
      "사태": 9889,
      "없는데": 9890,
      "남편": 9891,
      "##위로": 9892,
      "##은행": 9893,
      "##더만": 9894,
      "##운데": 9895,
      "많다": 9896,
      "우선": 9897,
      "주둥": 9898,
      "##듯이": 9899,
      "대통령은": 9900,
      "대책": 9901,
      "##군요": 9902,
      "물어": 9903,
      "##지마": 9904,
      "전국": 9905,
      "무섭": 9906,
      "##하겠다": 9907,
      "##명의": 9908,
      "##나게": 9909,
      "##상으로": 9910,
      "사실을": 9911,
      "북한이": 9912,
      "공감": 9913,
      "보기": 9914,
      "##이로": 9915,
      "상관": 9916,
      "그것도": 9917,
      "##가라": 9918,
      "힘내": 9919,
      "대법": 9920,
      "소비": 9921,
      "최악": 9922,
      "부족": 9923,
      "##방송": 9924,
      "목숨": 9925,
      "돈이": 9926,
      "자빠": 9927,
      "22": 9928,
      "광화": 9929,
      "기생": 9930,
      "대기업": 9931,
      "위안": 9932,
      "환경": 9933,
      "##한건": 9934,
      "##이스": 9935,
      "##하는건": 9936,
      "쓰고": 9937,
      "수입": 9938,
      "철저": 9939,
      "##물이": 9940,
      "##가족": 9941,
      "오래": 9942,
      "##지막": 9943,
      "어이": 9944,
      "##이유": 9945,
      "특별": 9946,
      "##씨는": 9947,
      "젊은": 9948,
      "남의": 9949,
      "##영업": 9950,
      "고소": 9951,
      "금지": 9952,
      "##주면": 9953,
      "##아도": 9954,
      "그랬": 9955,
      "31": 9956,
      "제공": 9957,
      "나중에": 9958,
      "##자인": 9959,
      "대해서": 9960,
      "논리": 9961,
      "##생활": 9962,
      "이걸": 9963,
      "경험": 9964,
      "KB": 9965,
      "##원의": 9966,
      "하늘": 9967,
      "추가": 9968,
      "어렵": 9969,
      "##과의": 9970,
      "개판": 9971,
      "단체": 9972,
      "새로운": 9973,
      "3년": 9974,
      "보인다": 9975,
      "문화": 9976,
      "##사람이": 9977,
      "똑같은": 9978,
      "##자기": 9979,
      "사람을": 9980,
      "자유한국": 9981,
      "60": 9982,
      "자랑": 9983,
      "##or": 9984,
      "##많은": 9985,
      "##사파": 9986,
      "##지역": 9987,
      "의심": 9988,
      "헛소리": 9989,
      "##사실": 9990,
      "중국에": 9991,
      "누군": 9992,
      "발언": 9993,
      "유럽": 9994,
      "필요한": 9995,
      "##했으면": 9996,
      "##하는지": 9997,
      "##봐도": 9998,
      "이루": 9999,
      "없음": 10000,
      "하자": 10001,
      "##당히": 10002,
      "##림픽": 10003,
      "##정치": 10004,
      "##트남": 10005,
      "##던지": 10006,
      "##하려고": 10007,
      "23": 10008,
      "##임을": 10009,
      "응원합니다": 10010,
      "규정에": 10011,
      "무너": 10012,
      "받았": 10013,
      "##로서": 10014,
      "위선": 10015,
      "병원": 10016,
      "검찰이": 10017,
      "##분들": 10018,
      "없다고": 10019,
      "##그램": 10020,
      "믿고": 10021,
      "이것": 10022,
      "##든지": 10023,
      "##줘야": 10024,
      "##인줄": 10025,
      "##세를": 10026,
      "받는": 10027,
      "괜찮": 10028,
      "택시": 10029,
      "##여서": 10030,
      "않았다": 10031,
      "눈치": 10032,
      "##18": 10033,
      "들고": 10034,
      "##라인": 10035,
      "되지": 10036,
      "태극기": 10037,
      "답답": 10038,
      "##on": 10039,
      "예정": 10040,
      "마지막": 10041,
      "##제를": 10042,
      "##냐고": 10043,
      "##스타": 10044,
      "##어버": 10045,
      "한국인": 10046,
      "##때는": 10047,
      "##부가": 10048,
      "##물을": 10049,
      "##은거": 10050,
      "##로부터": 10051,
      "하니": 10052,
      "따르면": 10053,
      "##돌아": 10054,
      "아닙": 10055,
      "이해가": 10056,
      "아닌데": 10057,
      "##로는": 10058,
      "국방": 10059,
      "경쟁": 10060,
      "우파": 10061,
      "너도": 10062,
      "무능한": 10063,
      "어쩔": 10064,
      "북한에": 10065,
      "정확": 10066,
      "##공자": 10067,
      "##일에": 10068,
      "##하지말고": 10069,
      "양아치": 10070,
      "충분": 10071,
      "하시": 10072,
      "사이비": 10073,
      "##기만": 10074,
      "계약": 10075,
      "소유": 10076,
      "처리": 10077,
      "고려": 10078,
      "강력": 10079,
      "##in": 10080,
      "ㅉㅉㅉ": 10081,
      "##갔다": 10082,
      "##판결": 10083,
      "한국은": 10084,
      "금융": 10085,
      "##하거나": 10086,
      "개정": 10087,
      "청문회": 10088,
      "온갖": 10089,
      "그저": 10090,
      "이정도": 10091,
      "##1년": 10092,
      "청년": 10093,
      "가져": 10094,
      "##화가": 10095,
      "더럽": 10096,
      "##어가": 10097,
      "지금까지": 10098,
      "##느라": 10099,
      "진정": 10100,
      "##겹다": 10101,
      "입니다": 10102,
      "##만명": 10103,
      "말은": 10104,
      "##습니까": 10105,
      "사기꾼": 10106,
      "제품": 10107,
      "통합": 10108,
      "일자리": 10109,
      "##쓰고": 10110,
      "알아서": 10111,
      "조직": 10112,
      "##받아": 10113,
      "가만히": 10114,
      "여기서": 10115,
      "이럴": 10116,
      "않을": 10117,
      "것들이": 10118,
      "베트남": 10119,
      "최대": 10120,
      "##도는": 10121,
      "##범죄": 10122,
      "전에": 10123,
      "##간에": 10124,
      "##온다": 10125,
      "##부대": 10126,
      "서울대": 10127,
      "아니라고": 10128,
      "처럼": 10129,
      "쓰는": 10130,
      "안타깝": 10131,
      "##서를": 10132,
      "기재": 10133,
      "세금으로": 10134,
      "##수의": 10135,
      "포기": 10136,
      "직원": 10137,
      "고통": 10138,
      "중국이": 10139,
      "26": 10140,
      "여당": 10141,
      "산업": 10142,
      "없을": 10143,
      "생각하는": 10144,
      "##세력": 10145,
      "일본에": 10146,
      "것들": 10147,
      "그러면": 10148,
      "크게": 10149,
      "강제": 10150,
      "1년": 10151,
      "만들고": 10152,
      "ㅎㅎㅎ": 10153,
      "##만한": 10154,
      "합의": 10155,
      "##가능": 10156,
      "피고인": 10157,
      "##시킨": 10158,
      "롯데": 10159,
      "대출": 10160,
      "분노": 10161,
      "인구": 10162,
      "아프": 10163,
      "페미": 10164,
      "##하네요": 10165,
      "당신이": 10166,
      "4월": 10167,
      "주고": 10168,
      "힘든": 10169,
      "대신": 10170,
      "##합시다": 10171,
      "한편": 10172,
      "##조의": 10173,
      "##치가": 10174,
      "미세먼지": 10175,
      "애초": 10176,
      "똑같이": 10177,
      "##an": 10178,
      "억울": 10179,
      "아닐": 10180,
      "70": 10181,
      "생각해": 10182,
      "##진핑": 10183,
      "##리그": 10184,
      "한다는": 10185,
      "##선을": 10186,
      "##라마": 10187,
      "자영업": 10188,
      "더이상": 10189,
      "##위가": 10190,
      "##하니까": 10191,
      "28": 10192,
      "똑같": 10193,
      "##해야한다": 10194,
      "##두환": 10195,
      "##있네": 10196,
      "인터넷": 10197,
      "비슷": 10198,
      "##부를": 10199,
      "##스럽다": 10200,
      "27": 10201,
      "##일을": 10202,
      "하세요": 10203,
      "느그": 10204,
      "##할까": 10205,
      "##국의": 10206,
      "동네": 10207,
      "자가": 10208,
      "행복": 10209,
      "##하려": 10210,
      "업무": 10211,
      "나베": 10212,
      "##총장": 10213,
      "관광": 10214,
      "재앙이": 10215,
      "##위해": 10216,
      "높은": 10217,
      "부탁": 10218,
      "##주도": 10219,
      "##상에": 10220,
      "10년": 10221,
      "과연": 10222,
      "##씨가": 10223,
      "자체": 10224,
      "바랍니다": 10225,
      "상식": 10226,
      "도시": 10227,
      "##져서": 10228,
      "소속": 10229,
      "##권이": 10230,
      "갖고": 10231,
      "##선동": 10232,
      "진정한": 10233,
      "##어진": 10234,
      "##이라니": 10235,
      "유치": 10236,
      "시행": 10237,
      "##걸로": 10238,
      "이리": 10239,
      "에휴": 10240,
      "공동": 10241,
      "됐다": 10242,
      "주는": 10243,
      "##놈들이": 10244,
      "##들에": 10245,
      "모자": 10246,
      "##됩니다": 10247,
      "조용히": 10248,
      "가라": 10249,
      "바꾸": 10250,
      "##전을": 10251,
      "197": 10252,
      "거래": 10253,
      "##오는": 10254,
      "구조": 10255,
      "전화": 10256,
      "저지": 10257,
      "취소": 10258,
      "##받는": 10259,
      "주사파": 10260,
      "##마트": 10261,
      "수준이": 10262,
      "집에": 10263,
      "불안": 10264,
      "##지말": 10265,
      "##스템": 10266,
      "광화문": 10267,
      "##이자": 10268,
      "깨끗": 10269,
      "평가": 10270,
      "자국민": 10271,
      "##미터": 10272,
      "전두환": 10273,
      "되면": 10274,
      "##중동": 10275,
      "몰랐": 10276,
      "##냈다": 10277,
      "스타": 10278,
      "뭔가": 10279,
      "아니지": 10280,
      "바라": 10281,
      "짱개": 10282,
      "참석": 10283,
      "그의": 10284,
      "제목": 10285,
      "##어난": 10286,
      "##단다": 10287,
      "앞서": 10288,
      "원숭": 10289,
      "빼고": 10290,
      "##그네": 10291,
      "##음을": 10292,
      "##독교": 10293,
      "나오는": 10294,
      "더욱": 10295,
      "제외": 10296,
      "아예": 10297,
      "##겠나": 10298,
      "선고": 10299,
      "나머": 10300,
      "LG": 10301,
      "예상": 10302,
      "위안부": 10303,
      "최저임금": 10304,
      "생긴": 10305,
      "말로": 10306,
      "##자도": 10307,
      "민노총": 10308,
      "벌써": 10309,
      "훨씬": 10310,
      "##스는": 10311,
      "갑자기": 10312,
      "생겼": 10313,
      "하나도": 10314,
      "##민주주의": 10315,
      "##제에": 10316,
      "집권": 10317,
      "##여행": 10318,
      "문재앙이": 10319,
      "위반": 10320,
      "기생충": 10321,
      "남북": 10322,
      "생각을": 10323,
      "##받은": 10324,
      "지금도": 10325,
      "희생": 10326,
      "물러": 10327,
      "당선": 10328,
      "들어가": 10329,
      "##계약": 10330,
      "행사": 10331,
      "돌아가": 10332,
      "##장의": 10333,
      "불러": 10334,
      "바꿔": 10335,
      "##을텐데": 10336,
      "주민": 10337,
      "29": 10338,
      "##인가요": 10339,
      "헌법": 10340,
      "##그러": 10341,
      "광고": 10342,
      "##사람들": 10343,
      "만나": 10344,
      "시진핑": 10345,
      "##반도": 10346,
      "막말": 10347,
      "빨갱": 10348,
      "다양": 10349,
      "에라이": 10350,
      "되었다": 10351,
      "##폐렴": 10352,
      "##수수": 10353,
      "아무것도": 10354,
      "##BC": 10355,
      "말씀": 10356,
      "미쳤": 10357,
      "##스가": 10358,
      "왜구": 10359,
      "국개": 10360,
      "놓고": 10361,
      "##잖아요": 10362,
      "군사": 10363,
      "잘못된": 10364,
      "정은이": 10365,
      "##인들이": 10366,
      "이상한": 10367,
      "올려": 10368,
      "##감을": 10369,
      "##하러": 10370,
      "일본의": 10371,
      "죽은": 10372,
      "뽑아": 10373,
      "독일": 10374,
      "##질이": 10375,
      "마이": 10376,
      "봐도": 10377,
      "서비스": 10378,
      "##는가": 10379,
      "##하여야": 10380,
      "기가": 10381,
      "##항의": 10382,
      "지적": 10383,
      "성장": 10384,
      "이전": 10385,
      "프랑": 10386,
      "하기": 10387,
      "이번에": 10388,
      "##슬람": 10389,
      "##졌네": 10390,
      "살고": 10391,
      "##했지만": 10392,
      "희망": 10393,
      "만드는": 10394,
      "##줘라": 10395,
      "그나마": 10396,
      "악마": 10397,
      "조심": 10398,
      "놈들이": 10399,
      "이놈": 10400,
      "##잡고": 10401,
      "한국이": 10402,
      "해주": 10403,
      "##리네": 10404,
      "##시오": 10405,
      "##성은": 10406,
      "##할거": 10407,
      "없어서": 10408,
      "출연": 10409,
      "##팔이": 10410,
      "등이": 10411,
      "중요한": 10412,
      "규정": 10413,
      "옹호": 10414,
      "미통": 10415,
      "##상의": 10416,
      "##보내": 10417,
      "##안을": 10418,
      "법을": 10419,
      "##진국": 10420,
      "대한민국을": 10421,
      "저게": 10422,
      "##누리": 10423,
      "본인이": 10424,
      "적극": 10425,
      "신뢰": 10426,
      "##겠습니다": 10427,
      "##라니": 10428,
      "##개발": 10429,
      "##억원": 10430,
      "건물": 10431,
      "인민": 10432,
      "##소년": 10433,
      "##대의": 10434,
      "##세금": 10435,
      "따로": 10436,
      "특검": 10437,
      "건설": 10438,
      "치매": 10439,
      "소송": 10440,
      "등에": 10441,
      "##심을": 10442,
      "##언론": 10443,
      "그렇지": 10444,
      "##겠네요": 10445,
      "##가락": 10446,
      "다만": 10447,
      "일으": 10448,
      "만큼": 10449,
      "##루킹": 10450,
      "##법이": 10451,
      "고민": 10452,
      "##달라고": 10453,
      "때문이다": 10454,
      "역할": 10455,
      "유튜": 10456,
      "##시설": 10457,
      "구성": 10458,
      "##위는": 10459,
      "##수로": 10460,
      "##했네": 10461,
      "근거": 10462,
      "조중동": 10463,
      "외국인": 10464,
      "##부로": 10465,
      "신청": 10466,
      "많아": 10467,
      "미군": 10468,
      "##하다는": 10469,
      "##장으로": 10470,
      "##상은": 10471,
      "한심하다": 10472,
      "##리기": 10473,
      "##분에": 10474,
      "이중": 10475,
      "자유한국당": 10476,
      "자연": 10477,
      "대놓고": 10478,
      "돌려": 10479,
      "때려": 10480,
      "##의로": 10481,
      "극우": 10482,
      "뭐라": 10483,
      "어휴": 10484,
      "하는짓": 10485,
      "부끄럽": 10486,
      "##했다는": 10487,
      "시절": 10488,
      "##이터": 10489,
      "있어야": 10490,
      "##느냐": 10491,
      "달라": 10492,
      "##스를": 10493,
      "없지": 10494,
      "좌좀": 10495,
      "민주당이": 10496,
      "##댓글": 10497,
      "쉽게": 10498,
      "있는지": 10499,
      "할수": 10500,
      "지구": 10501,
      "방사": 10502,
      "##20": 10503,
      "증가": 10504,
      "기간": 10505,
      "수십": 10506,
      "취업": 10507,
      "못하게": 10508,
      "노래": 10509,
      "우려": 10510,
      "##하기로": 10511,
      "있지만": 10512,
      "추진": 10513,
      "##으려고": 10514,
      "##에만": 10515,
      "관하여": 10516,
      "하지말고": 10517,
      "##관리": 10518,
      "SK": 10519,
      "##이지만": 10520,
      "##소득": 10521,
      "프레": 10522,
      "가까": 10523,
      "매일": 10524,
      "##보험": 10525,
      "인천": 10526,
      "남한": 10527,
      "##정의": 10528,
      "##있고": 10529,
      "애초에": 10530,
      "투기": 10531,
      "대한민국이": 10532,
      "아가리": 10533,
      "이는": 10534,
      "유니": 10535,
      "바람": 10536,
      "의무": 10537,
      "악플": 10538,
      "저거": 10539,
      "집안": 10540,
      "기존": 10541,
      "문제인": 10542,
      "##없어": 10543,
      "이래서": 10544,
      "##회의": 10545,
      "불매운동": 10546,
      "##사의": 10547,
      "##으로는": 10548,
      "경영": 10549,
      "##문을": 10550,
      "만드": 10551,
      "##공산": 10552,
      "##하다가": 10553,
      "없으면": 10554,
      "지지하는": 10555,
      "##아가": 10556,
      "힘을": 10557,
      "놈이": 10558,
      "그래야": 10559,
      "##했을": 10560,
      "중국은": 10561,
      "이다": 10562,
      "느낌": 10563,
      "##겠죠": 10564,
      "일어나": 10565,
      "##와의": 10566,
      "이딴": 10567,
      "##경기": 10568,
      "공급": 10569,
      "기관": 10570,
      "##으로써": 10571,
      "인간들이": 10572,
      "영원": 10573,
      "##비용": 10574,
      "통과": 10575,
      "##조차": 10576,
      "박원": 10577,
      "보험": 10578,
      "##ㅎㅎ": 10579,
      "가슴": 10580,
      "##보다는": 10581,
      "한테": 10582,
      "##공개": 10583,
      "기사를": 10584,
      "##제가": 10585,
      "만약": 10586,
      "실패": 10587,
      "애들이": 10588,
      "행정": 10589,
      "##좌파": 10590,
      "인도": 10591,
      "##기간": 10592,
      "##고도": 10593,
      "제출": 10594,
      "가운데": 10595,
      "제정신": 10596,
      "있을까": 10597,
      "입장": 10598,
      "전기": 10599,
      "경제가": 10600,
      "##시켜라": 10601,
      "##사태": 10602,
      "우리도": 10603,
      "##지의": 10604,
      "연기": 10605,
      "싫다": 10606,
      "##나보네": 10607,
      "미국의": 10608,
      "거리": 10609,
      "##구리": 10610,
      "정부의": 10611,
      "무식한": 10612,
      "##먹을": 10613,
      "위치": 10614,
      "비례": 10615,
      "##원에서": 10616,
      "##왔다": 10617,
      "찬성": 10618,
      "자동차": 10619,
      "말아": 10620,
      "입국금지": 10621,
      "안철": 10622,
      "혜택": 10623,
      "전문가": 10624,
      "##산업": 10625,
      "노인": 10626,
      "문정부": 10627,
      "죽여": 10628,
      "내부": 10629,
      "타이": 10630,
      "나온다": 10631,
      "##다는게": 10632,
      "##주택": 10633,
      "안나": 10634,
      "##준다": 10635,
      "##시키는": 10636,
      "죄다": 10637,
      "##검사": 10638,
      "##50": 10639,
      "감성": 10640,
      "##르게": 10641,
      "작품": 10642,
      "##당에": 10643,
      "성폭": 10644,
      "영국": 10645,
      "보유": 10646,
      "나라는": 10647,
      "모양": 10648,
      "##센터": 10649,
      "웃기": 10650,
      "진중": 10651,
      "조국은": 10652,
      "##디어": 10653,
      "##일까": 10654,
      "느끼": 10655,
      "마찬": 10656,
      "##미향": 10657,
      "근무": 10658,
      "##머리": 10659,
      "있던": 10660,
      "##하더니": 10661,
      "영업": 10662,
      "점점": 10663,
      "##으므로": 10664,
      "짜증": 10665,
      "##등학교": 10666,
      "한국에": 10667,
      "호구": 10668,
      "##그래": 10669,
      "못할": 10670,
      "오는": 10671,
      "도둑": 10672,
      "##행을": 10673,
      "##하도록": 10674,
      "중심": 10675,
      "##있냐": 10676,
      "뒤집": 10677,
      "똑바로": 10678,
      "##립니다": 10679,
      "##한것": 10680,
      "무죄": 10681,
      "ㅈㄹ": 10682,
      "개념": 10683,
      "80": 10684,
      "올림픽": 10685,
      "바른": 10686,
      "##이기": 10687,
      "##하는것": 10688,
      "자기가": 10689,
      "##OOO": 10690,
      "지하": 10691,
      "3월": 10692,
      "##있는데": 10693,
      "미쳐": 10694,
      "상승": 10695,
      "분열": 10696,
      "제작": 10697,
      "##싶다": 10698,
      "500": 10699,
      "##받을": 10700,
      "변호사": 10701,
      "##하신": 10702,
      "##했냐": 10703,
      "##까봐": 10704,
      "벌어": 10705,
      "않나": 10706,
      "명단": 10707,
      "미안": 10708,
      "혹시": 10709,
      "300": 10710,
      "##짓을": 10711,
      "##리게": 10712,
      "밝히": 10713,
      "거부": 10714,
      "아닙니다": 10715,
      "가르": 10716,
      "##스의": 10717,
      "##인듯": 10718,
      "##같은데": 10719,
      "기소": 10720,
      "검찰은": 10721,
      "어려운": 10722,
      "고용": 10723,
      "예산": 10724,
      "##석이": 10725,
      "한국의": 10726,
      "청원": 10727,
      "다행": 10728,
      "취급": 10729,
      "실제": 10730,
      "기각": 10731,
      "윤미향": 10732,
      "##리자": 10733,
      "상대로": 10734,
      "협박": 10735,
      "매우": 10736,
      "구라": 10737,
      "##정에서": 10738,
      "쪽팔": 10739,
      "##분을": 10740,
      "효과": 10741,
      "##적이고": 10742,
      "가해": 10743,
      "##쓰레기": 10744,
      "바란다": 10745,
      "감정": 10746,
      "방역": 10747,
      "##없네": 10748,
      "##비가": 10749,
      "선동질": 10750,
      "부르": 10751,
      "##려나": 10752,
      "민주당은": 10753,
      "##10": 10754,
      "분위": 10755,
      "당신은": 10756,
      "했던": 10757,
      "##계를": 10758,
      "멍청한": 10759,
      "제4": 10760,
      "정권이": 10761,
      "##먹은": 10762,
      "신문": 10763,
      "##줌마": 10764,
      "##자에게": 10765,
      "이러니": 10766,
      "밀어": 10767,
      "차지": 10768,
      "미개": 10769,
      "##번째": 10770,
      "임대": 10771,
      "죽을": 10772,
      "비롯": 10773,
      "물타": 10774,
      "##었던": 10775,
      "이란": 10776,
      "하던": 10777,
      "##가야": 10778,
      "움직": 10779,
      "드루킹": 10780,
      "##비를": 10781,
      "##대중": 10782,
      "기독교": 10783,
      "##명은": 10784,
      "살아라": 10785,
      "단순": 10786,
      "문제는": 10787,
      "위하여": 10788,
      "마련": 10789,
      "집중": 10790,
      "##한다면": 10791,
      "##정보": 10792,
      "##업체": 10793,
      "시위": 10794,
      "6월": 10795,
      "원고의": 10796,
      "##된다고": 10797,
      "가면": 10798,
      "개가": 10799,
      "##당의": 10800,
      "저질": 10801,
      "당해": 10802,
      "전국민": 10803,
      "장사": 10804,
      "잘하고": 10805,
      "사무": 10806,
      "싸움": 10807,
      "##말로": 10808,
      "강화": 10809,
      "##놓은": 10810,
      "불구": 10811,
      "손혜": 10812,
      "법무부장관": 10813,
      "언제까지": 10814,
      "선생": 10815,
      "##인으로": 10816,
      "##애들": 10817,
      "##부모": 10818,
      "##자식": 10819,
      "논란": 10820,
      "##미애": 10821,
      "##활동": 10822,
      "도로": 10823,
      "##었으면": 10824,
      "나라냐": 10825,
      "##그룹": 10826,
      "이와": 10827,
      "이민": 10828,
      "위원": 10829,
      "##했지": 10830,
      "근로": 10831,
      "##상황": 10832,
      "##하지마라": 10833,
      "##연금": 10834,
      "자본": 10835,
      "징역": 10836,
      "중소": 10837,
      "들이": 10838,
      "5월": 10839,
      "##집회": 10840,
      "##스러운": 10841,
      "공식": 10842,
      "어제": 10843,
      "확진자": 10844,
      "정도로": 10845,
      "차량": 10846,
      "##호증": 10847,
      "유명": 10848,
      "자녀": 10849,
      "소설": 10850,
      "고발": 10851,
      "##보기": 10852,
      "선발": 10853,
      "##ar": 10854,
      "평균": 10855,
      "##법을": 10856,
      "등등": 10857,
      "드라마": 10858,
      "자료": 10859,
      "법률": 10860,
      "##니깐": 10861,
      "대비": 10862,
      "쓰레기들": 10863,
      "##이든": 10864,
      "원전": 10865,
      "자주": 10866,
      "##나간": 10867,
      "대통령님": 10868,
      "##독재": 10869,
      "규모": 10870,
      "우리나라는": 10871,
      "비용": 10872,
      "쩝쩝": 10873,
      "거기에": 10874,
      "범죄자": 10875,
      "미국은": 10876,
      "오른": 10877,
      "교활": 10878,
      "폭망": 10879,
      "##복을": 10880,
      "##ㅉㅉ": 10881,
      "프로그램": 10882,
      "북괴": 10883,
      "빠져": 10884,
      "올랐": 10885,
      "대처": 10886,
      "동원": 10887,
      "늘어": 10888,
      "맞다": 10889,
      "현지": 10890,
      "예전": 10891,
      "이런거": 10892,
      "아나": 10893,
      "보여주": 10894,
      "1월": 10895,
      "하며": 10896,
      "의료진": 10897,
      "정치적": 10898,
      "이유로": 10899,
      "인물": 10900,
      "방문": 10901,
      "수가": 10902,
      "문정권": 10903,
      "국민들을": 10904,
      "##었고": 10905,
      "고맙": 10906,
      "2차": 10907,
      "좋아하는": 10908,
      "5년": 10909,
      "아닌가요": 10910,
      "교통": 10911,
      "196": 10912,
      "##거고": 10913,
      "조국을": 10914,
      "마찬가지": 10915,
      "않다": 10916,
      "##감이": 10917,
      "정경": 10918,
      "적당히": 10919,
      "꼬라지": 10920,
      "홍콩": 10921,
[...]
